<unk>	0
<s>	0
</s>	0
▁the	-3.55166
.	-3.60155
,	-3.6637
▁and	-4.12422
s	-4.16156
▁of	-4.28243
▁to	-4.44882
▁a	-4.4699
▁in	-4.54822
▁	-4.59263
▁was	-4.88564
▁"	-5.14592
▁आहे	-5.16835
▁The	-5.34903
'	-5.42568
▁is	-5.50836
-	-5.54308
▁for	-5.59858
▁with	-5.62083
▁on	-5.6882
▁या	-5.79357
▁as	-5.79799
ing	-5.80346
▁आणि	-5.83003
▁that	-5.83249
"	-5.88924
▁it	-5.90603
▁by	-5.91195
च्या	-5.99069
ed	-5.99352
▁his	-6.00132
▁he	-6.04469
▁He	-6.07636
▁(	-6.09017
त	-6.13118
▁from	-6.14598
▁at	-6.16486
च	-6.22992
ी	-6.2419
▁her	-6.26213
ा	-6.27643
ला	-6.28579
▁were	-6.29442
▁In	-6.31815
▁had	-6.36879
े	-6.38875
▁She	-6.41216
ही	-6.41322
▁are	-6.42408
चे	-6.43471
t	-6.436
▁an	-6.43728
ची	-6.45618
▁be	-6.53167
चा	-6.53374
)	-6.55573
▁They	-6.56299
▁आहेत	-6.58036
▁नाही	-6.58776
▁व	-6.60401
▁she	-6.66663
▁एक	-6.68597
▁said	-6.70131
▁which	-6.7112
▁It	-6.71819
▁हे	-6.727
▁not	-6.73972
e	-6.75915
d	-6.76304
▁they	-6.76465
▁यांनी	-6.76577
▁but	-6.78688
ने	-6.79705
▁or	-6.79959
▁their	-6.80108
▁ते	-6.89064
▁have	-6.89598
ly	-6.90702
▁तर	-6.91294
y	-6.91385
▁time	-6.91568
▁also	-6.94355
▁day	-6.96645
▁होते	-6.97436
▁so	-6.97786
▁A	-6.99347
ून	-6.99567
▁has	-6.99713
▁Lily	-7.00478
▁I	-7.00751
▁who	-7.02903
मध्ये	-7.03102
er	-7.03171
▁हा	-7.03996
▁केली	-7.05055
ं	-7.05193
▁first	-7.0597
▁there	-7.06827
▁one	-7.09916
▁करण्यात	-7.10153
वर	-7.11936
ात	-7.13156
ाच्या	-7.13704
:	-7.1412
▁you	-7.16459
▁its	-7.17714
क	-7.19398
स	-7.21023
▁all	-7.21206
न	-7.2146
",	-7.22265
▁असे	-7.22312
."	-7.23248
▁केले	-7.23631
▁ही	-7.24596
▁काही	-7.24665
th	-7.24692
▁this	-7.26085
▁him	-7.27133
▁other	-7.27194
▁up	-7.27675
र	-7.2806
▁very	-7.28524
▁can	-7.29691
a	-7.30505
ाची	-7.30565
n	-7.3158
▁two	-7.31997
al	-7.34201
▁been	-7.36936
▁केला	-7.38308
▁आले	-7.38509
▁would	-7.3875
".	-7.39434
▁त्यामुळे	-7.39907
▁पण	-7.40104
ल	-7.40277
▁them	-7.40662
▁when	-7.41333
ली	-7.41447
▁little	-7.42243
▁out	-7.43692
▁होती	-7.43818
▁new	-7.44038
▁into	-7.44351
!	-7.44666
▁One	-7.4484
ाचा	-7.45353
;	-7.45795
ले	-7.45888
es	-7.46531
▁play	-7.46835
▁मात्र	-7.47205
साठी	-7.47632
▁तो	-7.47672
▁after	-7.48116
▁त्या	-7.49147
य	-7.49909
▁over	-7.50145
),	-7.5042
m	-7.50584
▁होता	-7.51292
▁saw	-7.51405
▁की	-7.52252
▁more	-7.52484
▁made	-7.53836
▁some	-7.54067
ाचे	-7.54818
▁mom	-7.55332
o	-7.56092
▁happy	-7.56325
▁big	-7.56731
▁असून	-7.57028
म	-7.57426
S	-7.57872
in	-7.60102
ाला	-7.60741
▁आली	-7.61497
▁सुरू	-7.62324
▁करून	-7.62858
!"	-7.63166
ाने	-7.65397
▁सर्व	-7.65514
).	-7.66019
▁काम	-7.68195
▁years	-7.69138
▁अशी	-7.69254
▁then	-7.69293
▁आता	-7.69372
▁त्यांनी	-7.70131
I	-7.70466
▁Once	-7.71004
▁named	-7.71024
▁म्हणून	-7.71572
▁यांच्या	-7.71666
▁न	-7.71709
▁upon	-7.72287
▁झाली	-7.72306
▁झाले	-7.72877
i	-7.72888
▁दोन	-7.73195
▁back	-7.73468
▁about	-7.73551
▁माहिती	-7.75064
ांच्या	-7.75076
▁अनेक	-7.75422
▁wanted	-7.77783
ू	-7.78649
▁used	-7.78741
▁could	-7.79949
▁only	-7.79964
r	-7.8011
▁आपल्या	-7.80157
▁under	-7.80554
▁went	-7.80713
▁most	-7.81263
▁around	-7.81385
▁S	-7.82227
▁This	-7.82955
The	-7.83035
▁आला	-7.8343
▁girl	-7.83666
▁On	-7.83869
▁where	-7.84606
▁go	-7.85279
ांना	-7.85412
ता	-7.85863
▁झाला	-7.86388
▁एका	-7.86408
▁तसेच	-7.86637
्या	-7.86771
re	-7.868
▁such	-7.87216
c	-7.87265
▁का	-7.8729
तील	-7.87654
▁Ben	-7.88063
▁like	-7.88253
▁during	-7.88829
ना	-7.88947
▁many	-7.89081
ांनी	-7.89315
ांची	-7.90547
▁three	-7.90607
▁असा	-7.90794
▁home	-7.90999
ल्या	-7.91145
▁अशा	-7.91155
▁between	-7.91214
▁अ	-7.91657
A	-7.91676
▁Tom	-7.91816
▁became	-7.92261
ावर	-7.9243
▁found	-7.92968
▁त्यांना	-7.93174
▁did	-7.93312
▁मी	-7.93466
▁no	-7.93954
ातील	-7.9411
or	-7.94773
▁New	-7.94816
▁मुंबई	-7.95073
▁than	-7.9575
प	-7.96051
▁आपण	-7.96592
▁As	-7.97248
▁त्यांच्या	-7.97716
▁later	-7.98196
▁being	-7.99077
▁But	-7.99149
▁किंवा	-7.99214
▁होत	-7.99234
▁until	-8.00051
▁do	-8.00514
▁दिली	-8.00688
▁E	-8.01899
▁what	-8.02767
▁friends	-8.03009
▁part	-8.03341
▁both	-8.03449
▁de	-8.03732
व	-8.03951
ील	-8.04407
▁known	-8.04632
कर	-8.05166
on	-8.0537
▁make	-8.05486
▁while	-8.05515
▁हजार	-8.05632
ड	-8.05697
ण	-8.05866
ो	-8.06178
?"	-8.06276
▁re	-8.07011
▁people	-8.07088
▁ती	-8.07173
▁help	-8.07299
▁मध्ये	-8.07384
ित	-8.07401
k	-8.08381
▁will	-8.08395
▁After	-8.08603
▁before	-8.08737
▁called	-8.0989
▁through	-8.09993
▁United	-8.10913
▁year	-8.10935
ज	-8.11271
▁started	-8.11604
▁C	-8.11753
▁येथे	-8.11832
▁करत	-8.12107
▁जात	-8.12644
ic	-8.12868
▁करण्यासाठी	-8.1319
▁too	-8.13252
▁including	-8.1358
▁well	-8.13587
▁काय	-8.13648
l	-8.14113
ट	-8.14399
▁together	-8.14449
्स	-8.1465
▁name	-8.14918
man	-8.14988
▁1	-8.15069
▁D	-8.15562
ांचा	-8.15816
▁played	-8.16024
▁American	-8.16292
▁again	-8.16644
णे	-8.16837
B	-8.16874
▁family	-8.17337
g	-8.17739
▁took	-8.178
▁work	-8.18502
▁U	-8.18673
▁asked	-8.1879
▁Timmy	-8.18914
ers	-8.1979
en	-8.19847
▁His	-8.20499
▁felt	-8.2097
p	-8.21115
▁loved	-8.21228
▁तरी	-8.22043
▁असल्याचे	-8.22048
▁आज	-8.22262
▁down	-8.22314
▁came	-8.22328
b	-8.2244
▁away	-8.22732
▁कमी	-8.22849
ion	-8.23014
▁see	-8.23544
▁show	-8.23664
▁असलेल्या	-8.24059
/	-8.24131
▁park	-8.24304
▁राज्य	-8.24837
▁निर्णय	-8.24969
▁येथील	-8.24971
▁each	-8.25083
an	-8.25451
▁area	-8.25687
शी	-8.25728
▁smiled	-8.25758
▁यांना	-8.25814
▁city	-8.26122
▁fun	-8.26132
st	-8.26166
ासाठी	-8.26358
▁होणार	-8.26669
▁सांगितले	-8.26728
▁G	-8.26853
▁end	-8.27587
▁boy	-8.28021
▁use	-8.28108
▁may	-8.2844
▁B	-8.28882
▁film	-8.29403
▁दिले	-8.29434
▁looked	-8.29606
▁number	-8.30121
िक	-8.30187
▁second	-8.30287
▁age	-8.30454
▁तीन	-8.30519
▁म्हणजे	-8.30608
▁season	-8.3063
▁स	-8.3084
▁You	-8.30928
▁ran	-8.31153
▁अधिक	-8.31216
▁John	-8.31778
▁तयार	-8.31937
▁येत	-8.32057
us	-8.3231
▁population	-8.3235
ांचे	-8.32586
मुळे	-8.32901
▁school	-8.33017
▁water	-8.33135
▁because	-8.33141
▁There	-8.33185
▁दिवस	-8.33961
चं	-8.34351
▁put	-8.34473
▁When	-8.34474
▁विचार	-8.3457
▁we	-8.34832
▁small	-8.35434
▁against	-8.3592
▁लाख	-8.36403
▁man	-8.36417
▁began	-8.36763
▁if	-8.36771
▁album	-8.37287
▁playing	-8.37381
▁येणार	-8.37488
▁दाखल	-8.38044
▁game	-8.38781
▁much	-8.38781
▁States	-8.38823
▁पोलिस	-8.39024
▁long	-8.39078
▁University	-8.39417
▁team	-8.39514
▁3	-8.39564
कडे	-8.39588
to	-8.39914
▁आवश्यक	-8.39933
▁2	-8.40057
▁पाणी	-8.4023
▁प्रयत्न	-8.40262
▁त्याच्या	-8.40512
▁At	-8.40545
▁गेल्या	-8.40662
ir	-8.4108
▁take	-8.41098
z	-8.41185
▁W	-8.41192
▁K	-8.41656
C	-8.4168
h	-8.4169
▁देण्यात	-8.41802
फ	-8.41884
▁कारण	-8.42499
ar	-8.42576
▁says	-8.43028
िंग	-8.43088
,"	-8.43091
▁दिला	-8.43098
▁high	-8.43226
▁M	-8.43267
▁P	-8.43467
▁same	-8.43646
▁car	-8.43689
▁St	-8.43779
मधील	-8.44382
▁want	-8.4448
▁several	-8.45165
▁these	-8.45194
▁now	-8.45266
▁town	-8.4534
▁विविध	-8.45524
▁झालेल्या	-8.45849
ंना	-8.45937
▁लोक	-8.45952
▁released	-8.45991
▁four	-8.46012
▁War	-8.46137
ीत	-8.4626
▁decided	-8.46387
ब	-8.46408
▁series	-8.46468
▁World	-8.46468
▁me	-8.46717
T	-8.46717
u	-8.46844
▁bird	-8.47066
▁old	-8.47329
नी	-8.47771
ग	-8.47841
▁Her	-8.48164
▁सध्या	-8.48208
▁early	-8.48778
▁Tim	-8.48972
▁17	-8.49003
▁करणे	-8.49066
▁just	-8.492
▁state	-8.493
▁still	-8.4987
▁May	-8.50147
▁something	-8.50149
ton	-8.50158
▁मागणी	-8.50244
▁un	-8.50246
ि	-8.50368
▁special	-8.50398
▁मला	-8.50524
द	-8.50716
ation	-8.50949
▁T	-8.50974
ne	-8.5101
▁असेल	-8.51145
▁प्रतिनिधी	-8.51285
▁पाटील	-8.51322
▁इतर	-8.51392
the	-8.51415
▁won	-8.51854
▁प्रश्न	-8.51918
▁outside	-8.52075
▁For	-8.52534
▁sad	-8.52613
▁friend	-8.52671
▁any	-8.52703
▁घेऊन	-8.52786
se	-8.52996
▁असल्याने	-8.53159
▁So	-8.5328
▁N	-8.5335
▁वापर	-8.53397
▁O	-8.53582
▁करू	-8.53595
▁station	-8.53863
▁R	-8.54255
f	-8.54323
ळ	-8.5463
▁following	-8.54712
ु	-8.54739
▁got	-8.54753
▁good	-8.54846
▁आम्ही	-8.55026
ह	-8.55357
पासून	-8.55451
▁place	-8.55884
▁जे	-8.55996
▁National	-8.56019
▁get	-8.56046
le	-8.56064
▁best	-8.56092
श	-8.56134
▁house	-8.56254
▁बंद	-8.5628
▁डॉ	-8.56307
is	-8.5636
▁असं	-8.56407
▁group	-8.56571
D	-8.56798
▁असते	-8.56902
ist	-8.57128
ंच्या	-8.57207
कडून	-8.5721
▁असताना	-8.57302
▁चार	-8.57441
▁off	-8.5751
F	-8.57803
▁18	-8.57939
▁यावेळी	-8.57941
▁त्यानंतर	-8.58127
▁त्याला	-8.58234
co	-8.58341
el	-8.58712
ते	-8.5873
लं	-8.58908
▁From	-8.59156
▁since	-8.59175
▁June	-8.59336
ंनी	-8.60229
▁स्वत	-8.60408
▁how	-8.60618
▁held	-8.60928
▁School	-8.60943
▁पुन्हा	-8.60944
▁located	-8.61032
▁भारतीय	-8.61036
▁F	-8.61264
▁कोटी	-8.61568
▁world	-8.61689
▁things	-8.61854
▁band	-8.62021
▁निर्माण	-8.62118
ांत	-8.62203
▁January	-8.62208
▁never	-8.62344
▁March	-8.62356
री	-8.62361
▁पूर्ण	-8.62611
▁दरम्यान	-8.62663
▁होईल	-8.62978
▁आनी	-8.63076
K	-8.63134
▁even	-8.63157
▁10	-8.63185
▁4	-8.63193
▁जाते	-8.63302
ंची	-8.63388
▁local	-8.63743
▁16	-8.63801
de	-8.63806
▁find	-8.6385
▁my	-8.63995
वा	-8.64003
▁We	-8.64157
▁thought	-8.64175
▁फक्	-8.64674
▁Sam	-8.64716
▁South	-8.64744
▁However	-8.64745
▁August	-8.64778
▁पाच	-8.65651
ll	-8.65671
▁रुपये	-8.6605
▁music	-8.66511
▁October	-8.66566
▁प्रत्येक	-8.66666
▁system	-8.66702
il	-8.66741
▁own	-8.6684
▁15	-8.66972
▁म	-8.67162
▁September	-8.67235
▁व्यक्त	-8.67646
▁केंद्र	-8.67706
▁कारवाई	-8.67788
▁gave	-8.67817
▁ठिकाणी	-8.67832
▁County	-8.6805
▁excited	-8.6829
▁left	-8.68567
▁यांची	-8.68705
▁December	-8.6882
▁5	-8.68829
▁main	-8.68936
▁घेतला	-8.68996
▁every	-8.69006
na	-8.69174
▁British	-8.69324
▁near	-8.69449
M	-8.69558
▁dog	-8.69931
it	-8.6998
णी	-8.70017
▁head	-8.7022
▁नाहीत	-8.70637
ia	-8.70648
▁government	-8.70951
ry	-8.71047
▁tree	-8.71208
▁different	-8.71279
▁वाढ	-8.71302
▁former	-8.71401
ian	-8.71556
पर्यंत	-8.71673
V	-8.71673
▁सरकार	-8.71677
▁नाव	-8.72064
▁way	-8.72209
▁children	-8.72229
▁liked	-8.72321
▁July	-8.72369
▁another	-8.72672
डी	-8.72797
▁York	-8.73102
▁your	-8.73195
▁म्हणाले	-8.73209
▁along	-8.7353
नं	-8.73601
▁always	-8.73901
मा	-8.74158
ment	-8.74262
E	-8.74446
ां	-8.7457
▁Dur	-8.74649
▁ज्या	-8.74739
ro	-8.74767
▁line	-8.74806
▁April	-8.74911
▁तेव्हा	-8.74918
1	-8.74971
H	-8.75031
▁जिल्हा	-8.75047
▁include	-8.75094
▁भाग	-8.75221
te	-8.75244
▁महाराष्ट्र	-8.75252
▁उपस्थित	-8.754
▁large	-8.75462
▁century	-8.75483
▁विकास	-8.75575
▁North	-8.75643
▁परंतु	-8.75782
▁मोठ्या	-8.75903
▁वेळ	-8.75915
▁set	-8.75929
▁L	-8.75957
ांवर	-8.76134
▁those	-8.76326
ter	-8.76389
x	-8.76752
▁आ	-8.77003
▁टक्के	-8.77251
ास	-8.77406
▁November	-8.77443
ta	-8.776
▁built	-8.7765
▁त्यात	-8.77744
ra	-8.77744
▁served	-8.77748
▁due	-8.77953
▁विशेष	-8.78071
▁देखील	-8.78197
P	-8.78235
▁चित्रपट	-8.78389
▁आमदार	-8.78634
▁company	-8.78812
▁महिला	-8.79142
▁H	-8.79481
ley	-8.79567
▁public	-8.79568
▁didn	-8.79652
▁book	-8.79722
3	-8.79812
▁Anna	-8.79821
2	-8.80017
as	-8.80233
पणे	-8.80306
▁पोलीस	-8.80315
▁अध्यक्ष	-8.80324
▁प	-8.80337
▁scared	-8.8034
▁घेतली	-8.80547
▁चर्चा	-8.80876
▁केवळ	-8.80889
▁last	-8.81442
▁formula	-8.81535
▁opened	-8.82037
▁City	-8.82105
▁based	-8.82122
▁run	-8.82215
▁पुढे	-8.82325
L	-8.82442
▁member	-8.82449
▁करण्याची	-8.82472
▁शिक्षण	-8.82504
▁शहर	-8.82545
▁जास्त	-8.82598
▁within	-8.82689
▁रेल्वे	-8.82702
▁Re	-8.82992
ातून	-8.83092
▁("	-8.83183
▁February	-8.83322
▁खूप	-8.83391
▁सु	-8.83537
▁स्पष्ट	-8.83612
ch	-8.83645
▁Max	-8.83799
ंचा	-8.8399
्	-8.84056
▁mommy	-8.84091
▁Mom	-8.84297
▁20	-8.84337
ri	-8.84551
▁included	-8.84597
▁next	-8.84965
▁करता	-8.85258
▁भाजप	-8.85367
▁काँग्रेस	-8.85419
सा	-8.85458
▁song	-8.85554
▁received	-8.85698
▁co	-8.85699
▁La	-8.85716
▁6	-8.85914
able	-8.85955
▁ना	-8.86059
ma	-8.86251
▁शकते	-8.86369
▁top	-8.86423
ई	-8.86483
▁inside	-8.86528
▁पवार	-8.86536
▁having	-8.86585
▁पुणे	-8.86607
▁दर	-8.86784
ख	-8.86787
▁रोजी	-8.86818
▁दिल्ली	-8.86851
▁केलेल्या	-8.86883
▁ह्या	-8.8698
▁जाणार	-8.87041
▁वि	-8.87311
सह	-8.87367
▁often	-8.87418
▁पोलिसांनी	-8.87434
ity	-8.87466
▁पक्ष	-8.87495
▁अधिकारी	-8.87591
या	-8.87674
▁कधी	-8.87677
▁Al	-8.87685
रे	-8.87764
▁million	-8.88319
▁single	-8.88391
ad	-8.88558
तून	-8.8858
▁room	-8.88629
▁five	-8.88748
▁moved	-8.88766
▁form	-8.88809
▁know	-8.88952
▁No	-8.89001
▁प्रकार	-8.89075
▁knew	-8.89219
G	-8.89477
▁'	-8.89482
▁West	-8.89532
▁life	-8.89592
▁River	-8.89641
▁De	-8.90182
▁club	-8.90268
▁मोदी	-8.90386
लेल्या	-8.90474
▁गेले	-8.90489
ंचे	-8.90688
▁सरकारने	-8.90719
▁भेट	-8.90753
▁उत्तर	-8.90922
▁मदत	-8.91037
▁12	-8.9122
नंतर	-8.91464
ीय	-8.9157
ंत	-8.91611
▁major	-8.91646
▁होऊ	-8.91714
▁दोन्ही	-8.91946
▁important	-8.91946
▁मुख्यमंत्री	-8.92008
land	-8.9221
▁8	-8.92249
▁To	-8.92264
▁told	-8.92378
▁7	-8.92485
▁१	-8.92488
वि	-8.92708
ism	-8.92741
▁घटना	-8.93052
ंग	-8.9306
▁मुख्य	-8.93068
▁living	-8.93122
▁वर	-8.93364
▁जागा	-8.93537
▁Jack	-8.93683
▁side	-8.93718
▁मग	-8.93761
▁उपलब्ध	-8.94164
▁खर्च	-8.94165
▁के	-8.94166
का	-8.94175
▁died	-8.94204
▁period	-8.94213
▁original	-8.94241
w	-8.94271
▁death	-8.94281
▁late	-8.94299
▁परिणाम	-8.94431
▁tried	-8.9457
▁कर	-8.94598
▁यासाठी	-8.94675
▁average	-8.94702
no	-8.94921
ive	-8.95146
▁V	-8.95295
son	-8.9543
▁बाहेर	-8.95537
नुसार	-8.95624
▁toys	-8.95753
ine	-8.9578
▁क	-8.95786
▁भर	-8.95828
▁घर	-8.95948
▁ब	-8.95993
▁यांचा	-8.96094
▁published	-8.96109
रा	-8.96563
▁led	-8.96577
▁members	-8.96638
▁जाहीर	-8.96849
्य	-8.96893
ur	-8.96953
▁should	-8.97046
▁look	-8.97263
▁विजय	-8.97358
▁League	-8.97437
am	-8.97469
ामुळे	-8.97478
▁यांचे	-8.97632
▁समिती	-8.97682
▁heard	-8.97719
▁बदल	-8.97779
▁war	-8.97782
▁right	-8.98049
▁मार्ग	-8.98114
▁per	-8.98273
▁better	-8.98311
▁born	-8.98599
ce	-8.98663
▁नवीन	-8.98722
▁State	-8.98767
▁And	-8.98807
▁service	-8.98946
▁असतात	-8.99043
ांमध्ये	-8.99156
▁final	-8.99172
▁bear	-8.99367
▁village	-8.99487
▁करणार	-8.995
▁माजी	-8.99523
▁land	-8.99547
▁An	-8.99551
▁वेळी	-8.99559
▁Park	-8.9976
▁non	-8.99871
▁al	-8.99923
▁भारत	-8.9994
▁त्याचा	-9.00057
▁9	-9.00092
▁English	-9.00168
um	-9.00358
▁लक्ष	-9.00381
▁शक्यता	-9.0042
N	-9.00464
▁country	-9.0063
▁करीत	-9.00795
पी	-9.0091
दा	-9.00957
▁ball	-9.01251
थ	-9.01259
O	-9.01478
▁माझ्या	-9.01613
▁योग्य	-9.01627
est	-9.01756
ती	-9.01798
▁J	-9.01853
▁आरोप	-9.01853
▁नंतर	-9.01971
▁become	-9.02331
▁येईल	-9.0236
▁few	-9.02397
▁present	-9.02507
▁national	-9.02593
at	-9.02663
▁German	-9.02767
▁games	-9.02824
ent	-9.02946
▁करा	-9.02949
la	-9.02956
वे	-9.03011
▁मराठी	-9.03063
▁पाहिजे	-9.03087
▁लागले	-9.03088
▁support	-9.03094
▁रंग	-9.03111
▁इ	-9.03151
टी	-9.03196
ies	-9.03293
▁भूमिका	-9.03309
▁आदेश	-9.03351
▁building	-9.03492
▁त्यांची	-9.03631
के	-9.03752
ti	-9.03836
4	-9.03844
▁box	-9.03846
▁Le	-9.03951
▁14	-9.03964
▁करण्याचा	-9.04083
▁व्यक्ती	-9.04118
ण्यासाठी	-9.04358
▁French	-9.04421
▁द	-9.04586
▁son	-9.05036
▁third	-9.05062
▁toy	-9.05063
▁full	-9.05133
▁त्याने	-9.05312
un	-9.05316
")	-9.05493
▁Co	-9.05504
▁प्र	-9.05527
ty	-9.05556
▁ठाकरे	-9.05577
be	-9.05602
W	-9.05678
▁त्यांचे	-9.05785
ca	-9.05967
▁All	-9.05972
▁come	-9.06006
▁father	-9.06014
▁प्रवेश	-9.06099
▁open	-9.06126
▁north	-9.06218
ate	-9.06315
▁result	-9.06488
ul	-9.06509
▁13	-9.06542
▁परत	-9.06579
da	-9.066
▁continued	-9.06612
▁नवी	-9.06716
▁role	-9.06868
ting	-9.07016
▁US	-9.07047
ling	-9.07176
▁बस	-9.07211
▁great	-9.07277
▁Then	-9.07685
▁संघ	-9.07711
ामध्ये	-9.0773
▁love	-9.07822
▁field	-9.07888
▁१९	-9.07952
up	-9.08037
▁निवडणूक	-9.08064
ve	-9.08164
▁त्याची	-9.08334
▁(19	-9.08408
▁established	-9.08454
▁2010	-9.08687
▁खेळ	-9.08714
▁पार	-9.08754
▁dad	-9.08837
▁ground	-9.09027
▁cat	-9.09029
id	-9.09253
ge	-9.09348
et	-9.09404
▁order	-9.09482
▁राष्ट्रवादी	-9.09524
▁सुरुवात	-9.09562
▁using	-9.09602
age	-9.09827
▁lived	-9.10121
sh	-9.10124
ary	-9.10169
▁होतो	-9.10196
▁आर्थिक	-9.10354
▁making	-9.1041
▁returned	-9.10506
▁total	-9.10713
▁himself	-9.10725
लो	-9.1073
▁soon	-9.1074
der	-9.10795
▁प्रकल्प	-9.10847
out	-9.10902
▁hand	-9.10983
▁नये	-9.11036
▁वा	-9.11073
▁ता	-9.11103
▁record	-9.11213
▁sorry	-9.11506
▁सुरु	-9.1152
ie	-9.11554
▁among	-9.11628
▁सकाळी	-9.11664
▁power	-9.11716
▁lost	-9.11761
▁करताना	-9.1183
▁announced	-9.11892
▁II	-9.12062
▁होतं	-9.1217
▁शकता	-9.12182
ol	-9.12206
▁air	-9.12261
▁London	-9.12428
▁विभाग	-9.12441
▁राज	-9.12541
▁मे	-9.12669
▁गरज	-9.12732
▁यात	-9.12771
▁various	-9.12927
▁याची	-9.12942
▁career	-9.13159
▁त	-9.13223
▁समोर	-9.1346
im	-9.13511
j	-9.13548
▁England	-9.13717
nd	-9.13729
मधून	-9.13756
▁आनंद	-9.13766
▁south	-9.13785
▁केल्या	-9.13834
सी	-9.13844
me	-9.13966
▁worked	-9.13968
▁2006	-9.1397
and	-9.14048
▁यामुळे	-9.14114
▁कार्यक्रम	-9.1414
▁मृत्यू	-9.14257
▁11	-9.14279
▁सेवा	-9.14388
▁हात	-9.14432
▁six	-9.14711
▁Do	-9.1472
▁does	-9.14738
▁आलेल्या	-9.14748
तो	-9.14827
णार	-9.14832
▁सर्वात	-9.14925
▁story	-9.15012
ach	-9.15249
▁याबाबत	-9.1544
▁appeared	-9.15539
▁घेत	-9.1556
▁Suddenly	-9.15585
ांसाठी	-9.15671
lo	-9.15722
R	-9.15777
से	-9.15779
▁political	-9.15895
▁married	-9.15989
▁species	-9.15989
▁समावेश	-9.15989
▁घेतले	-9.16007
▁These	-9.16018
▁आंदोलन	-9.16273
▁याचा	-9.16335
▁Man	-9.16491
▁garden	-9.16532
▁पंतप्रधान	-9.16615
▁history	-9.16699
▁आरोग्य	-9.16797
▁party	-9.16899
जी	-9.16905
ंड	-9.1706
▁असतो	-9.17087
go	-9.17107
▁proud	-9.17116
▁red	-9.17288
▁योजना	-9.17341
▁food	-9.17352
J	-9.17377
▁district	-9.17465
tic	-9.17542
ुन	-9.17568
▁राजकीय	-9.17625
▁p	-9.17635
▁१०	-9.17713
▁don	-9.17737
▁देत	-9.17942
▁rock	-9.17974
▁तुम्ही	-9.18039
ेल	-9.18133
▁मोठा	-9.18199
▁post	-9.18386
▁San	-9.18425
▁निवड	-9.18703
▁Sara	-9.18778
▁couldn	-9.18858
▁hugged	-9.18872
▁-	-9.18902
▁लक्षात	-9.18967
▁students	-9.18984
▁नाशिक	-9.19207
▁given	-9.19209
▁wrote	-9.19331
▁however	-9.19577
▁२	-9.19717
▁television	-9.19864
▁law	-9.19973
▁College	-9.1999
▁काळात	-9.20233
▁example	-9.20277
▁development	-9.20296
▁By	-9.20363
ni	-9.20368
▁सादर	-9.20415
▁Mo	-9.20506
णाऱ्या	-9.20534
▁नेते	-9.20573
▁Some	-9.20646
▁प्रमाणात	-9.20704
ॉ	-9.20783
दार	-9.21029
di	-9.21299
▁seen	-9.21306
▁followed	-9.2135
▁३	-9.2141
▁रात्री	-9.215
▁गांधी	-9.21547
▁च्या	-9.2172
▁नि	-9.21877
▁सहा	-9.21919
▁community	-9.2198
▁करतात	-9.21985
▁कोणत्याही	-9.22052
▁दि	-9.22136
▁House	-9.22453
▁रा	-9.22523
▁असल्याची	-9.22626
▁men	-9.22636
▁produced	-9.22665
▁popular	-9.22687
▁संपूर्ण	-9.22713
▁राष्ट्रीय	-9.2289
U	-9.22941
▁title	-9.23055
▁अटक	-9.23068
▁ever	-9.23083
ka	-9.23162
▁25	-9.23256
▁Church	-9.23379
▁उच्च	-9.23409
▁फार	-9.23432
▁hard	-9.23469
▁को	-9.23473
▁learned	-9.23573
▁c	-9.23595
▁short	-9.23635
▁2000	-9.23696
▁According	-9.23718
▁सुमारे	-9.23731
▁general	-9.23857
▁2008	-9.23923
पेक्षा	-9.24107
▁thank	-9.24139
▁वाहतूक	-9.24184
▁East	-9.24385
ci	-9.24518
▁say	-9.24534
▁2005	-9.24568
▁version	-9.2457
▁होत्या	-9.24606
▁पहिल्या	-9.24665
▁need	-9.24711
▁म्हटले	-9.2475
ver	-9.24775
▁strong	-9.24818
▁भागात	-9.25021
▁तिच्या	-9.25282
do	-9.25359
▁केलं	-9.25457
▁त्याचे	-9.2546
▁त्यांचा	-9.25574
▁Street	-9.25803
▁High	-9.25814
▁घेण्यात	-9.25873
▁अर्ज	-9.25937
राव	-9.25961
▁animals	-9.26092
▁उत्पादन	-9.26232
ण्याची	-9.2634
▁kind	-9.26464
▁Me	-9.26612
ham	-9.26669
▁प्रमुख	-9.26732
▁उमेदवार	-9.26754
▁With	-9.26865
▁करावी	-9.27003
▁Mia	-9.2716
▁site	-9.27193
आ	-9.27253
र्	-9.27334
▁created	-9.27379
▁production	-9.27437
os	-9.27476
▁19	-9.27567
▁लहान	-9.27634
▁ए	-9.27642
▁30	-9.27672
li	-9.27714
▁size	-9.27766
▁region	-9.27788
▁आय	-9.27821
▁Be	-9.27903
ant	-9.27963
most	-9.27978
▁वर्ष	-9.28005
▁King	-9.2803
▁considered	-9.28104
▁position	-9.28311
▁joined	-9.28372
▁2011	-9.28373
▁keep	-9.28379
▁साहित्य	-9.28405
▁जाऊ	-9.28436
▁संख्या	-9.2848
▁समाज	-9.28583
▁While	-9.28662
▁संबंधित	-9.28678
▁race	-9.28683
▁across	-9.28773
▁reached	-9.28847
▁going	-9.28855
▁वर्षी	-9.28937
▁William	-9.28961
▁एकूण	-9.28967
7	-9.2902
mo	-9.29215
▁night	-9.2927
▁share	-9.29294
तात	-9.29302
▁जातो	-9.29455
ha	-9.29633
▁close	-9.29722
▁give	-9.29828
▁किती	-9.29895
▁त्यासाठी	-9.29933
ga	-9.30077
born	-9.30103
pa	-9.30347
men	-9.30373
▁येते	-9.30379
▁शकतो	-9.30393
▁military	-9.30401
▁अगदी	-9.30518
▁further	-9.30677
▁let	-9.30774
▁शोध	-9.30859
▁player	-9.30919
ness	-9.30941
▁आल्या	-9.31078
▁release	-9.31119
time	-9.3114
नगर	-9.31148
ायला	-9.31157
▁similar	-9.31223
ीक	-9.31227
by	-9.31273
▁ग	-9.31295
▁विषय	-9.31344
▁mother	-9.31518
वरील	-9.31559
▁common	-9.31569
▁program	-9.318
va	-9.31809
▁France	-9.31982
▁term	-9.32
▁modern	-9.32004
▁written	-9.3205
▁eat	-9.32103
he	-9.32136
▁करावा	-9.32143
▁आणखी	-9.32179
झ	-9.32229
▁पैसे	-9.32255
बाबत	-9.32417
▁कार्य	-9.32473
▁fire	-9.32597
▁European	-9.32639
▁परिसरात	-9.3269
▁ख	-9.32763
▁प्रक्रिया	-9.3292
▁Canada	-9.32934
▁areas	-9.32935
कार	-9.33048
▁कार	-9.33122
lin	-9.33143
ताना	-9.33312
▁संधी	-9.33374
v	-9.33411
▁election	-9.33447
वरून	-9.33589
▁light	-9.33675
ke	-9.33686
▁समस्या	-9.33696
▁उपचार	-9.33833
▁beautiful	-9.33857
▁मिळत	-9.33867
ण्यात	-9.33998
▁मतदान	-9.34021
▁100	-9.3404
▁दिसत	-9.34237
▁river	-9.34262
गाव	-9.34323
▁गुन्हा	-9.34344
▁body	-9.34354
▁गंभीर	-9.34358
▁जातात	-9.34397
▁white	-9.34425
▁point	-9.34433
▁देश	-9.34453
▁ने	-9.34477
▁safe	-9.34522
ous	-9.34634
▁ओ	-9.34665
▁kept	-9.34696
▁हो	-9.34782
▁खरेदी	-9.34799
▁brother	-9.34942
▁met	-9.35096
▁formed	-9.35166
▁एकदा	-9.35173
▁black	-9.35208
क्ष	-9.35249
▁church	-9.35292
▁खासदार	-9.35494
▁नगर	-9.35524
▁अन्य	-9.35535
▁कंपनी	-9.35614
It	-9.35762
▁मन	-9.35794
one	-9.3583
▁आमच्या	-9.35859
▁गाव	-9.35935
▁आपले	-9.3603
▁voice	-9.36147
▁मंदिर	-9.36151
▁तास	-9.36187
▁women	-9.36312
year	-9.36314
▁गेली	-9.36334
▁must	-9.36352
▁football	-9.36361
▁आपल्याला	-9.36425
ंवर	-9.36499
▁nice	-9.36563
▁helped	-9.36724
ard	-9.36822
▁कु	-9.36829
▁मंत्री	-9.36888
ance	-9.36903
▁सदस्य	-9.36922
▁Ka	-9.36936
▁गोष्टी	-9.3698
▁सात	-9.37137
▁तरुण	-9.37229
ावे	-9.37236
▁चित्र	-9.37444
िन	-9.37475
▁International	-9.37506
▁although	-9.37542
▁founded	-9.37611
▁sun	-9.37611
▁fish	-9.37683
▁times	-9.37757
▁करणाऱ्या	-9.37798
▁idea	-9.37846
?	-9.37936
▁संजय	-9.37984
▁देव	-9.38011
▁others	-9.38151
▁माध्यमातून	-9.38156
▁वय	-9.38192
▁Ha	-9.38263
▁consist	-9.38311
▁दिवशी	-9.38412
▁वर्षे	-9.38442
वी	-9.38495
▁far	-9.38599
▁स्थानिक	-9.38674
▁आपली	-9.38681
▁Go	-9.38737
▁गेला	-9.38748
▁addition	-9.38846
▁राज्यात	-9.38853
▁()	-9.3897
की	-9.38977
No	-9.38981
▁recorded	-9.39037
ated	-9.39071
den	-9.39308
▁कायम	-9.39355
शा	-9.39373
▁blue	-9.3939
▁though	-9.39393
▁उ	-9.39404
▁developed	-9.39524
▁America	-9.396
▁Australia	-9.39608
▁मत	-9.39663
▁विश्वास	-9.39688
▁श्री	-9.39859
ंक	-9.39905
▁James	-9.4006
▁control	-9.40203
▁feel	-9.40236
ner	-9.40274
▁character	-9.40377
▁Cup	-9.40438
▁half	-9.40444
6	-9.40545
▁door	-9.40596
▁refer	-9.40604
▁careful	-9.40619
▁live	-9.40638
▁wife	-9.40754
स्ट	-9.40776
▁यश	-9.40802
ba	-9.40842
▁road	-9.40888
▁शक्य	-9.40983
▁office	-9.41024
▁Hall	-9.41049
▁2012	-9.41109
▁शेतकरी	-9.41237
▁अर्थ	-9.41378
▁Ar	-9.41432
▁तपास	-9.41467
ph	-9.41575
▁१५	-9.416
▁2009	-9.41602
▁win	-9.41665
▁पाकिस्तान	-9.41726
▁Army	-9.41796
▁try	-9.41805
▁करण्याचे	-9.41849
▁अजून	-9.41859
▁भाव	-9.42028
स्	-9.42054
▁५	-9.42071
प्र	-9.42099
▁शब्द	-9.42139
▁जर	-9.42145
▁design	-9.42183
▁largest	-9.42241
▁toward	-9.42478
You	-9.42491
way	-9.42546
ized	-9.42735
▁flew	-9.42816
▁sky	-9.42848
ko	-9.42948
▁राम	-9.42967
▁फोटो	-9.42993
▁sound	-9.43064
▁लागला	-9.4322
▁sometimes	-9.4323
▁Bo	-9.43297
▁west	-9.43352
rs	-9.4337
▁That	-9.43384
िया	-9.43488
▁घरी	-9.43614
▁level	-9.43624
▁त्यावर	-9.43624
▁lots	-9.43626
ler	-9.43756
▁21	-9.43816
ish	-9.43915
▁face	-9.43992
▁ऑफ	-9.4405
▁days	-9.44066
▁round	-9.44079
▁income	-9.44088
▁George	-9.44136
▁business	-9.44153
▁कसे	-9.44177
▁Na	-9.44203
▁ज	-9.4433
▁दहा	-9.44409
▁मोठी	-9.44447
पा	-9.44451
▁described	-9.44458
▁परिस्थिती	-9.44532
▁laughed	-9.44702
▁तिला	-9.44729
▁pre	-9.44799
▁अनुभव	-9.44863
▁सिनेमा	-9.44973
▁Party	-9.45
ध	-9.45002
▁signed	-9.45005
▁California	-9.45142
▁जीवन	-9.45144
▁walked	-9.45153
▁चौकशी	-9.4517
▁आदी	-9.45283
▁प्रस्ताव	-9.45309
per	-9.45322
▁once	-9.45505
▁आयुक्त	-9.45594
▁case	-9.4569
डे	-9.45702
▁lead	-9.45724
▁जिल्ह्यातील	-9.4573
▁sea	-9.45759
▁Ma	-9.45862
▁Although	-9.45869
▁daughter	-9.45985
▁forest	-9.45988
▁नव्या	-9.46014
▁रक्कम	-9.46051
▁lot	-9.46062
▁store	-9.46105
▁services	-9.46165
▁finished	-9.46207
ष	-9.46326
▁मान	-9.46368
▁झाल्या	-9.46379
▁Can	-9.46384
▁जा	-9.46541
▁शहरात	-9.46542
▁२०	-9.46594
▁east	-9.4667
▁जो	-9.46674
▁social	-9.46766
line	-9.46789
▁Mar	-9.46844
▁पुढील	-9.46851
Yes	-9.4691
▁available	-9.46968
▁1990	-9.46971
▁फ	-9.46995
▁शहरातील	-9.47069
que	-9.47077
▁Island	-9.47124
hi	-9.4723
▁radio	-9.47252
▁गो	-9.47315
▁पत्रकार	-9.47345
ber	-9.4741
ंद	-9.47432
▁Council	-9.47523
▁match	-9.47716
▁less	-9.47828
▁शिवसेना	-9.47892
▁आरोपी	-9.47982
5	-9.47984
अ	-9.4815
▁our	-9.482
रंगाबाद	-9.48267
▁जग	-9.48333
▁here	-9.48475
▁देऊन	-9.48498
▁free	-9.48558
ंमध्ये	-9.48619
▁आघाडी	-9.48627
▁दुसऱ्या	-9.48638
▁प्रवास	-9.48652
▁president	-9.48696
▁higher	-9.48707
▁कि	-9.48933
▁move	-9.48934
▁El	-9.48969
▁research	-9.48987
▁जी	-9.49008
▁brought	-9.49016
▁Air	-9.49021
▁Royal	-9.49031
▁तक्रार	-9.49111
▁working	-9.49191
▁tell	-9.49197
▁कर्ज	-9.49214
▁पासून	-9.49253
sa	-9.49272
▁राज्यातील	-9.49367
▁hurt	-9.49394
▁1970	-9.49396
ted	-9.49443
▁कोण	-9.4964
▁Europe	-9.49742
▁books	-9.49787
▁bad	-9.49841
▁Act	-9.49864
▁Po	-9.4989
▁return	-9.49938
ther	-9.5006
देखील	-9.50087
▁Robert	-9.50141
▁District	-9.50152
▁विद्यार्थी	-9.50152
▁Sa	-9.50304
▁rest	-9.50312
व्या	-9.50325
▁जाईल	-9.50355
▁David	-9.5037
▁नागपूर	-9.50403
▁fast	-9.50432
▁24	-9.50475
▁track	-9.5049
▁अभ्यास	-9.5051
▁करुन	-9.50578
भ	-9.50581
ानंतर	-9.5059
▁बांधकाम	-9.50746
less	-9.50879
▁sold	-9.50953
ाकडे	-9.51043
▁feeling	-9.51062
▁international	-9.512
▁General	-9.51232
▁Roman	-9.51296
▁art	-9.51336
▁hands	-9.51351
▁instead	-9.51449
▁ल	-9.51499
▁लागली	-9.51512
▁President	-9.51533
▁प्रमाण	-9.5157
▁2003	-9.51656
▁नरेंद्र	-9.51687
▁brave	-9.51708
▁Union	-9.51712
्र	-9.51718
▁above	-9.51736
ak	-9.51795
▁पुरस्कार	-9.51831
▁निवडणुकीत	-9.51861
बी	-9.51876
ang	-9.51886
▁उघड	-9.51982
ah	-9.52014
▁India	-9.52053
▁Other	-9.52094
ंब	-9.52176
ya	-9.52264
▁Road	-9.52284
▁e	-9.52291
्यात	-9.52321
▁human	-9.52336
▁usually	-9.52349
▁Lake	-9.52387
▁समज	-9.5247
▁कर्मचारी	-9.52487
▁होऊन	-9.52503
▁professional	-9.52516
▁able	-9.52542
▁जवळ	-9.52553
▁language	-9.52589
▁space	-9.52607
io	-9.52698
सोबत	-9.52732
▁आपला	-9.52732
▁running	-9.52742
▁behind	-9.52852
▁project	-9.5295
▁दिलेल्या	-9.52997
field	-9.53034
▁taken	-9.53056
▁noise	-9.53077
con	-9.53091
▁appointed	-9.53095
▁1,	-9.53133
▁Peter	-9.53149
▁Since	-9.5325
▁ओळख	-9.53438
▁young	-9.53579
▁वाद	-9.53625
▁elected	-9.53819
▁Lucy	-9.53839
▁असता	-9.53882
▁songs	-9.53959
ंट	-9.54025
▁घोषणा	-9.54032
▁रे	-9.5424
▁वाट	-9.54246
▁८	-9.54368
▁seven	-9.54439
▁र	-9.54532
▁1980	-9.54631
▁quickly	-9.54643
▁सामाजिक	-9.54655
पणा	-9.54786
▁Court	-9.54852
vo	-9.54982
▁ह	-9.55023
▁दूर	-9.55028
▁loud	-9.55038
▁contract	-9.55079
0	-9.55195
▁Bob	-9.55196
▁Association	-9.55226
▁Company	-9.55226
▁di	-9.5524
▁लग्न	-9.55271
▁प्रकाश	-9.55283
▁older	-9.55286
▁Con	-9.55291
घ	-9.55294
▁range	-9.55334
▁याच	-9.55357
▁mean	-9.55367
▁current	-9.55436
▁थेट	-9.55442
▁White	-9.55484
गा	-9.55543
▁pretty	-9.55628
ाचं	-9.55669
▁median	-9.55673
▁1960	-9.55686
▁months	-9.55822
▁सामना	-9.55838
▁sub	-9.55902
▁completed	-9.55927
▁१२	-9.56039
▁प्रदेश	-9.56101
▁schools	-9.56114
▁निश्चित	-9.56124
▁उप	-9.56137
ster	-9.56273
8	-9.5643
▁राहुल	-9.56435
▁ठाणे	-9.56435
▁angry	-9.56435
▁शकत	-9.56456
▁निधी	-9.56478
▁ship	-9.56521
▁Germany	-9.56605
▁दु	-9.56866
▁आई	-9.56897
▁सहभागी	-9.5694
▁2020	-9.57066
▁सह	-9.57088
▁सूचना	-9.57089
▁reach	-9.57192
▁मिळणार	-9.57205
▁ला	-9.57425
▁सरकारी	-9.57479
▁कोल्हापूर	-9.57481
▁४	-9.57495
▁eventually	-9.57668
▁मागे	-9.57761
▁stay	-9.57822
▁प्रेम	-9.57862
▁process	-9.57887
▁either	-9.57936
▁education	-9.58004
▁2002	-9.58033
▁Ko	-9.58043
ीच्या	-9.58175
om	-9.58216
▁यंदा	-9.58231
▁director	-9.58239
द्वारे	-9.58251
▁Mary	-9.58287
▁वाजता	-9.58295
बद्दल	-9.58341
9	-9.58352
ाशी	-9.584
जा	-9.58451
▁households	-9.5855
▁female	-9.58579
▁works	-9.58638
▁2014	-9.58641
▁provided	-9.58681
▁जिल्ह्यात	-9.58758
लेले	-9.58759
▁study	-9.588
mer	-9.58872
▁जोरदार	-9.58899
▁real	-9.58976
▁mid	-9.59001
▁remained	-9.59015
▁पर्याय	-9.59115
▁pro	-9.59354
▁वाहन	-9.59359
▁काळ	-9.59367
▁low	-9.59372
▁Lu	-9.5941
mar	-9.59458
if	-9.59622
चो	-9.59651
▁लागू	-9.5967
▁UK	-9.5967
bi	-9.5967
▁परवानगी	-9.59731
▁Paul	-9.59747
▁front	-9.59865
vi	-9.59867
▁सोमवारी	-9.59969
▁Z	-9.60045
णा	-9.60176
▁Sarah	-9.60258
▁Ca	-9.60298
We	-9.60397
▁replaced	-9.60435
▁घटक	-9.60459
व्ह	-9.60487
▁मित्र	-9.60508
ाव	-9.6051
▁Red	-9.60574
▁closed	-9.60602
gen	-9.60748
▁टीम	-9.60767
▁construction	-9.60792
▁शिव	-9.60806
र्स	-9.6083
▁Mommy	-9.60855
▁allow	-9.60967
▁originally	-9.61021
▁explore	-9.6105
ार	-9.61116
▁खान	-9.61178
▁start	-9.61203
▁झाल्यानंतर	-9.61224
19	-9.61298
▁देशात	-9.61307
Let	-9.61418
▁तुमच्या	-9.61435
▁Award	-9.61435
▁केंद्रीय	-9.61455
ov	-9.61477
▁बँक	-9.61502
डा	-9.61575
जवळ	-9.61579
▁Australian	-9.61769
▁दिल्या	-9.61822
▁शिंदे	-9.61848
▁change	-9.61887
▁hit	-9.61915
op	-9.61938
▁फडणवीस	-9.62061
▁Division	-9.62062
▁22	-9.62091
▁runs	-9.62098
▁गुण	-9.62138
▁महा	-9.6214
▁विरोध	-9.62144
न्स	-9.62237
without	-9.62283
ran	-9.62289
▁तेथे	-9.62307
ana	-9.62331
▁Lo	-9.62358
▁विधानसभा	-9.62491
ाय	-9.62525
▁करण्यास	-9.62641
ाक	-9.62645
▁finally	-9.6268
सं	-9.62702
▁class	-9.62717
▁done	-9.62782
ck	-9.62855
pe	-9.62876
▁धाव	-9.6305
▁आयोजित	-9.63142
ial	-9.6325
▁मिळाले	-9.63258
▁करावे	-9.63282
▁paper	-9.63307
▁stopped	-9.63359
au	-9.634
हून	-9.63466
▁बैठक	-9.63487
▁serve	-9.6357
▁लागेल	-9.63576
ina	-9.63622
ीन	-9.63624
▁2017	-9.63668
ें	-9.63673
▁लागणार	-9.63738
▁टीका	-9.63816
शे	-9.63837
▁Every	-9.63851
▁island	-9.63923
▁३०	-9.63928
▁शाळा	-9.63934
पूर	-9.64
▁केल्यानंतर	-9.64042
▁नियम	-9.6405
▁league	-9.6406
▁featured	-9.64086
▁person	-9.64118
ure	-9.64126
▁eyes	-9.64149
▁गोष्ट	-9.6421
▁आधी	-9.64252
▁county	-9.64269
▁चालू	-9.64271
▁सामान्य	-9.64281
▁walking	-9.6429
▁65	-9.643
ान	-9.64317
▁looking	-9.6438
▁नगरसेवक	-9.64411
▁मिळाली	-9.64448
▁दिसून	-9.64487
ts	-9.64491
▁जाधव	-9.64669
▁picked	-9.64862
▁census	-9.64887
▁possible	-9.64887
▁arrived	-9.649
▁am	-9.64906
▁त्यावेळी	-9.64945
▁families	-9.64976
ki	-9.64993
▁अतिशय	-9.65108
▁introduced	-9.65164
▁शिक्षक	-9.65209
▁performed	-9.65231
▁Ro	-9.65277
min	-9.65281
टे	-9.6529
▁आवाहन	-9.6533
▁fell	-9.65331
▁शरद	-9.65335
▁जखमी	-9.65363
▁Pa	-9.65367
▁African	-9.65468
▁visit	-9.65482
▁करते	-9.65497
▁लोकसभा	-9.65554
▁Center	-9.65568
rd	-9.65592
▁states	-9.65609
▁seat	-9.65632
kin	-9.65674
▁join	-9.65713
▁Li	-9.65736
▁इंडिया	-9.65773
▁संस्था	-9.65779
▁Bay	-9.65845
▁events	-9.65924
▁जण	-9.65975
▁Charles	-9.66008
▁शकतात	-9.66014
▁नसल्याने	-9.66235
▁मंगळवारी	-9.6625
▁अपघात	-9.66325
▁board	-9.66417
▁बे	-9.66453
▁stop	-9.66453
णं	-9.66492
▁असल्याचा	-9.66552
▁रि	-9.66571
▁model	-9.66588
▁आर	-9.66757
▁वातावरण	-9.66768
▁आठ	-9.66772
ey	-9.66821
ut	-9.66826
▁उत्तम	-9.66892
▁अत्यंत	-9.67117
▁Group	-9.67119
▁गट	-9.67158
ल्याने	-9.67185
▁changed	-9.67239
▁झाल्याने	-9.67256
स्त	-9.67266
▁कुटुंब	-9.67274
राज	-9.67309
▁नागरिक	-9.67411
▁प्रसिद्ध	-9.67431
▁Dr	-9.67488
▁care	-9.67518
▁parents	-9.67537
▁groups	-9.67542
▁sent	-9.67603
▁Japanese	-9.67638
▁नुकसान	-9.67716
▁आकार	-9.67723
▁कामगार	-9.67732
▁cut	-9.67734
▁Club	-9.67811
ong	-9.67852
तालुक्यातील	-9.68075
▁Black	-9.68179
ja	-9.68181
▁पत्र	-9.682
▁जन्म	-9.68202
tra	-9.68269
ward	-9.68286
▁includes	-9.68329
ten	-9.68368
▁leading	-9.68402
▁court	-9.68406
▁पुस्तक	-9.68425
les	-9.68427
▁turn	-9.68457
▁अद्याप	-9.68479
▁rather	-9.6848
ापासून	-9.68504
▁aircraft	-9.68535
▁dis	-9.68617
▁पा	-9.68681
▁पद	-9.68685
▁बाजार	-9.68757
▁ten	-9.68774
▁जाऊन	-9.68821
▁base	-9.68939
▁बुधवारी	-9.68974
▁वीज	-9.68995
▁stage	-9.69004
▁TV	-9.69121
ठ	-9.69154
वतीने	-9.69183
▁Great	-9.69199
▁2019	-9.69199
▁2015	-9.6924
▁वेळा	-9.69271
wa	-9.69359
▁तयारी	-9.69433
▁एकत्र	-9.69455
▁सुविधा	-9.69459
▁व्यवसाय	-9.69494
▁असलेले	-9.69509
▁Se	-9.69568
ho	-9.69614
▁पाऊस	-9.69633
▁video	-9.69725
▁लाभ	-9.69728
▁खा	-9.69728
▁चव्हाण	-9.6986
▁least	-9.69861
▁alone	-9.6988
▁मुंबईत	-9.69891
▁market	-9.69908
▁क्रिकेट	-9.6994
▁Ra	-9.70044
em	-9.70122
▁key	-9.70149
उ	-9.70177
ढ	-9.70259
▁con	-9.70259
▁पी	-9.70313
▁itself	-9.70352
▁चांगले	-9.70365
▁read	-9.70368
▁Jane	-9.70393
▁standard	-9.70398
side	-9.70423
▁coming	-9.70437
▁novel	-9.70459
▁रस्त्यावर	-9.70519
▁प्रथम	-9.70557
▁money	-9.7056
▁official	-9.70588
▁Central	-9.70598
▁फोन	-9.70627
▁Indian	-9.70691
▁bed	-9.70707
▁उतर	-9.70917
▁Canadian	-9.71053
▁त्याच	-9.71057
▁शि	-9.7106
▁काढून	-9.71068
▁green	-9.7114
षध	-9.71141
▁st	-9.71155
वाडी	-9.71248
▁तुम्हाला	-9.71275
▁warm	-9.71314
▁मु	-9.71332
▁walk	-9.71343
▁घरात	-9.71371
▁Thomas	-9.71497
समोर	-9.71532
▁पूर्व	-9.71539
What	-9.7166
mi	-9.71741
▁throughout	-9.71787
ॅ	-9.71814
▁longer	-9.71828
▁plant	-9.71913
pi	-9.71941
▁table	-9.71978
मान	-9.71997
ेश	-9.72126
▁style	-9.72136
▁features	-9.72155
ंज	-9.72179
▁काळजी	-9.72224
▁event	-9.72281
▁डॉक्टर	-9.72326
ac	-9.72331
▁यामध्ये	-9.72368
▁private	-9.72369
▁dark	-9.72437
▁दावा	-9.72461
▁Washington	-9.72488
▁designed	-9.72547
▁clean	-9.72601
▁km	-9.72628
▁2018	-9.72631
▁गाडी	-9.72651
▁Catholic	-9.72702
▁रविवारी	-9.72739
we	-9.72816
▁slide	-9.72852
▁निकाल	-9.72937
▁मा	-9.72949
▁Sea	-9.72957
▁especially	-9.72969
po	-9.72982
▁boat	-9.73057
▁११	-9.73122
▁Pro	-9.73123
▁करतो	-9.73131
▁स्पर्धा	-9.73149
▁तब्ब	-9.7316
▁First	-9.73204
▁Western	-9.73256
▁provide	-9.73322
▁needed	-9.73325
▁भ	-9.73366
20	-9.73388
▁players	-9.7342
▁China	-9.73436
off	-9.73448
▁centre	-9.73495
▁वर्ग	-9.73588
▁२५	-9.73604
▁अंदाज	-9.73638
▁enough	-9.73639
▁कुठे	-9.73641
▁23	-9.73662
▁child	-9.73755
▁Ho	-9.73756
▁Su	-9.73803
che	-9.73818
▁प्राप्त	-9.73995
▁females	-9.74007
▁1999	-9.74037
▁क्षेत्र	-9.74042
▁महापालिका	-9.74121
▁Minister	-9.74123
▁training	-9.74156
▁वेग	-9.74164
ship	-9.7417
▁lower	-9.74264
▁मार	-9.74379
▁type	-9.74393
▁मोठे	-9.74393
▁wide	-9.74439
▁units	-9.74493
▁successful	-9.74509
▁खास	-9.74524
▁added	-9.74545
▁६	-9.74572
coming	-9.74618
▁लागत	-9.7465
▁यावर	-9.747
▁26	-9.74712
▁hug	-9.7478
▁forces	-9.74835
▁सत्ता	-9.74866
▁list	-9.74873
▁ज्येष्ठ	-9.74875
▁course	-9.74891
▁विक्री	-9.74928
▁center	-9.75023
▁भारतात	-9.75072
▁countries	-9.75095
▁Spot	-9.75112
ळे	-9.75113
qui	-9.75123
▁command	-9.75146
▁Saint	-9.75169
▁campaign	-9.75237
रो	-9.75245
ino	-9.75254
▁Joe	-9.75255
▁episode	-9.75298
▁रद्द	-9.7534
▁Follow	-9.75364
ud	-9.75383
com	-9.75426
▁असेही	-9.75442
▁active	-9.75514
▁tour	-9.75573
▁उपक्रम	-9.75583
▁debut	-9.75591
han	-9.75708
▁points	-9.75732
▁येत्या	-9.75749
▁नोंद	-9.75756
ag	-9.75818
▁आम्हाला	-9.75851
dy	-9.75912
▁कॉलेज	-9.75944
▁summer	-9.76077
को	-9.76097
▁होण्याची	-9.76155
िका	-9.76188
ron	-9.76259
ger	-9.76298
▁विमान	-9.76305
▁विद्यार्थ्यां	-9.76305
देशातील	-9.76347
▁reported	-9.76363
▁Most	-9.76391
▁placed	-9.7646
▁शेती	-9.76516
▁shiny	-9.76569
▁दुपारी	-9.76585
▁अन	-9.76588
▁शरीर	-9.76589
▁turned	-9.76593
ig	-9.76606
▁विरोधी	-9.76632
टा	-9.76709
▁learn	-9.76762
▁police	-9.76818
मी	-9.76833
ally	-9.76836
▁न्यायालयाने	-9.7689
▁eight	-9.76899
▁star	-9.77015
ab	-9.77019
tor	-9.77037
bo	-9.77043
gi	-9.77051
▁अहवाल	-9.77059
▁Grand	-9.77087
▁प्रा	-9.77279
▁central	-9.77402
नि	-9.77409
za	-9.77411
▁bit	-9.77454
ors	-9.77544
▁Chinese	-9.77598
▁जीव	-9.77598
▁आसा	-9.77666
▁traditional	-9.77769
▁anti	-9.77777
▁Kingdom	-9.7782
▁via	-9.7802
▁बी	-9.78087
▁closer	-9.78133
▁below	-9.78172
▁today	-9.78217
▁मागील	-9.78225
▁Ri	-9.78271
▁performance	-9.78275
▁शिवाजी	-9.78311
▁Japan	-9.78318
▁involved	-9.7836
▁संप	-9.78448
▁गर्दी	-9.78573
▁leave	-9.78581
▁प्रशासन	-9.78635
▁Christian	-9.78716
ex	-9.78757
ence	-9.7878
ेस	-9.78787
That	-9.7883
▁असल्यामुळे	-9.78854
▁might	-9.78981
▁मतदार	-9.79005
▁उद्धव	-9.79079
▁सोशल	-9.79079
▁southern	-9.79079
ville	-9.79084
▁करायला	-9.79101
▁देण्यासाठी	-9.79117
▁अधिकार	-9.79183
िल	-9.79222
▁cars	-9.79283
▁Bar	-9.79283
▁एस	-9.79351
▁९	-9.79351
▁fly	-9.79372
▁regular	-9.79518
▁regard	-9.79589
▁मार्च	-9.7962
▁तरीही	-9.79622
day	-9.79704
बा	-9.79761
▁Vi	-9.79797
▁Two	-9.7985
▁railway	-9.79851
▁संबंध	-9.79868
▁विद्यार्थ्यांना	-9.79903
▁word	-9.80021
tri	-9.80033
जे	-9.80052
▁उद्योग	-9.80064
▁रु	-9.80091
▁कामे	-9.80112
▁से	-9.80213
tion	-9.8033
▁flowers	-9.80356
▁heavy	-9.80356
▁noticed	-9.80388
ier	-9.80392
▁डिसेंबर	-9.80427
▁success	-9.80484
▁significant	-9.80545
▁ग्रामीण	-9.80615
▁northern	-9.80615
▁bring	-9.80621
ेत	-9.80629
▁us	-9.80663
▁अखेर	-9.80832
▁धोरण	-9.80874
Thank	-9.80889
ण्याचा	-9.80949
▁क्रमांक	-9.80994
त्या	-9.81054
▁येतात	-9.81081
▁प्रति	-9.811
▁निर्मिती	-9.8112
ect	-9.81162
ions	-9.8121
▁तक्रारी	-9.81247
▁parts	-9.81277
▁सी	-9.81342
▁असले	-9.81356
▁जि	-9.81364
▁sister	-9.81392
▁required	-9.81476
▁plan	-9.81503
▁bar	-9.81509
ए	-9.81538
tu	-9.8154
▁awarded	-9.81556
▁आत	-9.81557
▁लोकांना	-9.81579
▁महिन्यात	-9.81651
▁कामगिरी	-9.81678
▁killed	-9.81749
▁कला	-9.81828
▁2007	-9.81849
▁आव्हान	-9.81911
▁listen	-9.81917
वार	-9.81921
▁ice	-9.81925
▁individuals	-9.81958
▁जून	-9.81976
ाळ	-9.82038
ow	-9.82047
ium	-9.82113
▁सर	-9.8215
▁independent	-9.82156
▁spent	-9.82184
ळी	-9.82205
▁सार्वजनिक	-9.82207
▁Car	-9.82319
▁क्षेत्रात	-9.82353
▁generally	-9.82356
▁हवा	-9.82365
▁Many	-9.82387
▁झाड	-9.82396
▁shows	-9.82425
▁Michael	-9.82461
▁floor	-9.82467
▁yellow	-9.82472
▁allowed	-9.82484
ऱ्या	-9.8249
▁परीक्षा	-9.82494
▁someone	-9.82524
▁कार्यालय	-9.82568
▁पत्नी	-9.82702
▁आहोत	-9.82703
▁route	-9.82723
▁nearby	-9.82729
▁Henry	-9.82736
ासह	-9.82796
▁commercial	-9.82912
▁असू	-9.82957
▁Department	-9.82965
▁खासगी	-9.82975
▁data	-9.83013
▁lake	-9.83073
▁train	-9.83122
▁५०	-9.83177
tro	-9.83192
▁वाढत	-9.8321
▁information	-9.8323
▁वे	-9.83246
▁सगळ्या	-9.83247
▁आलं	-9.83251
▁मिळाला	-9.83251
▁material	-9.83258
▁organization	-9.83261
▁2004	-9.83264
▁शुक्रवारी	-9.83268
▁force	-9.83297
ists	-9.83317
▁हि	-9.83472
▁interest	-9.83561
▁27	-9.83598
▁७	-9.8362
▁येऊ	-9.8364
"),	-9.83694
▁धर्म	-9.83721
मो	-9.83748
▁access	-9.83756
▁college	-9.83792
▁जानेवारी	-9.83798
▁Ba	-9.83808
▁शनिवारी	-9.83825
chi	-9.83906
▁author	-9.83946
▁stated	-9.83949
▁राहणार	-9.83953
▁सर्वाधिक	-9.83965
▁येतो	-9.83975
▁means	-9.83975
▁Society	-9.84028
▁प्रचंड	-9.84028
▁Records	-9.84038
प्रमाणे	-9.84064
▁birds	-9.84122
▁economic	-9.84134
▁लेख	-9.84174
▁writing	-9.84227
▁१८	-9.8424
▁Green	-9.8429
▁nodded	-9.84298
▁पाय	-9.84336
▁municipality	-9.84354
▁श	-9.84355
▁Russian	-9.84383
ford	-9.8445
▁coach	-9.84513
▁action	-9.84533
▁दक्षिण	-9.84591
▁section	-9.84619
red	-9.84651
ung	-9.84681
▁truck	-9.84881
▁Or	-9.84963
ite	-9.84992
ाई	-9.84998
▁पि	-9.85035
like	-9.85076
▁ऑगस्ट	-9.85101
ीचा	-9.8516
▁संरक्षण	-9.8517
त्व	-9.85208
▁माग	-9.85293
▁Let	-9.85333
▁Un	-9.85358
▁Smith	-9.85372
▁location	-9.85435
▁Te	-9.85436
ell	-9.85449
50	-9.8549
▁owned	-9.85608
▁नोव्हेंबर	-9.85643
▁बँके	-9.85651
▁नाटक	-9.85692
▁capital	-9.85715
▁डे	-9.85748
▁बैठकीत	-9.85748
▁काँग्रेसचे	-9.85811
ku	-9.85818
▁m	-9.85831
▁गणेश	-9.85921
▁नसल्याचे	-9.8594
▁ठेवण्या	-9.85947
▁पर	-9.86036
▁ended	-9.86046
▁Ta	-9.86066
▁create	-9.86071
ंच	-9.861
fa	-9.8611
▁Hill	-9.86169
▁त्रास	-9.86187
▁Later	-9.86259
▁ठाण्यात	-9.86261
▁network	-9.86261
▁sure	-9.86272
▁मूळ	-9.86288
Z	-9.86298
lan	-9.86307
▁goal	-9.86334
ep	-9.8637
▁यशस्वी	-9.86382
▁buy	-9.86461
▁पदार्थ	-9.86464
▁trees	-9.86486
▁agreed	-9.86496
").	-9.86512
▁structure	-9.86621
▁40	-9.86648
ानं	-9.86665
▁सुरक्षा	-9.86733
▁50	-9.86738
▁फायदा	-9.86753
्व	-9.86782
▁taking	-9.868
Y	-9.86925
▁natural	-9.86971
▁systems	-9.86972
▁झालेली	-9.86973
▁teams	-9.8699
▁rabbit	-9.87024
▁असणार	-9.87037
ou	-9.8707
▁आग	-9.87079
▁division	-9.87099
▁cover	-9.87108
▁past	-9.87146
वून	-9.87155
cy	-9.87219
ot	-9.87229
▁thus	-9.87289
▁त्यानुसार	-9.87424
▁महत्त्व	-9.87427
▁bright	-9.87462
▁झालं	-9.87515
▁नव्हे	-9.87567
▁ex	-9.87601
▁संवाद	-9.87649
▁Music	-9.87682
▁स्पर्धेत	-9.8778
▁hospital	-9.87838
पूर्ण	-9.87878
▁आयोजन	-9.87881
▁न्याय	-9.87883
▁previously	-9.87982
▁जय	-9.88
▁आढळ	-9.8801
tin	-9.88049
▁1992	-9.88119
▁1950	-9.88125
▁build	-9.8813
▁तिथे	-9.88196
ण्या	-9.88271
▁नोकरी	-9.8828
▁rain	-9.88396
▁28	-9.88415
▁everyone	-9.88423
▁Spanish	-9.88441
इ	-9.88607
सर	-9.88627
▁वस्तू	-9.8864
▁smile	-9.88676
मन	-9.88735
our	-9.8875
▁famous	-9.88767
▁तिने	-9.88784
▁वन	-9.88835
र्ड	-9.88887
ांकडून	-9.88921
▁relative	-9.88956
▁किमान	-9.88963
▁पार्श्वभूमीवर	-9.88989
▁मध्य	-9.89032
▁films	-9.89061
ization	-9.89066
▁trade	-9.89124
ूर	-9.8915
▁primary	-9.89235
▁अंतिम	-9.89235
▁किलो	-9.89251
▁संचालक	-9.89267
▁मंडळ	-9.89269
▁पळ	-9.8928
▁highest	-9.89287
▁मुली	-9.89365
▁मुले	-9.89369
▁attack	-9.89371
▁तेल	-9.89376
▁Ga	-9.89478
old	-9.89492
▁subject	-9.89501
▁वर्षात	-9.89503
▁replied	-9.89516
▁Hu	-9.89543
▁इतिहास	-9.89558
▁रस्ता	-9.89562
ेन	-9.89607
▁रुग्णालयात	-9.89653
led	-9.89678
▁न्यायालयात	-9.8968
▁Ne	-9.89682
▁जबाबदारी	-9.89685
▁रुग्ण	-9.89707
▁मो	-9.89721
▁pick	-9.89818
hy	-9.89856
तर्फे	-9.89891
▁job	-9.89956
▁movement	-9.89958
▁डी	-9.89962
▁unit	-9.89974
▁आवाज	-9.90027
▁नका	-9.90032
ल्यानंतर	-9.90036
▁मिळेल	-9.90095
▁Richard	-9.90098
▁words	-9.90108
▁king	-9.90123
वेळी	-9.90207
▁attended	-9.90232
▁passed	-9.90257
▁ट	-9.90288
▁Texas	-9.90366
▁कोणता	-9.90425
ap	-9.90432
ring	-9.90483
▁studio	-9.9051
▁स्थान	-9.90527
▁soft	-9.90649
▁आंतरराष्ट्रीय	-9.90651
▁Italian	-9.90652
▁विरोधात	-9.90705
▁असतील	-9.90706
▁stations	-9.90783
▁31	-9.90802
ze	-9.90833
▁makes	-9.90869
▁God	-9.90897
▁Los	-9.91011
▁ठेवले	-9.91031
ip	-9.91033
▁directed	-9.91159
▁dance	-9.91185
▁Bi	-9.91214
▁why	-9.91238
▁प्रकरण	-9.91251
▁manager	-9.91258
▁happened	-9.91324
wood	-9.91361
वान	-9.91372
▁deal	-9.91378
▁स्थिती	-9.91396
▁चा	-9.9141
oc	-9.91503
ीकरण	-9.91505
▁university	-9.9151
▁2023	-9.9152
▁If	-9.91528
sen	-9.91625
▁1996	-9.9165
▁test	-9.91723
▁2007,	-9.91751
▁सा	-9.91782
▁लवकरच	-9.91783
▁ति	-9.91791
▁beginning	-9.918
▁Institute	-9.91824
▁2022	-9.91945
▁2021	-9.92016
हि	-9.92058
10	-9.92131
▁सरकारच्या	-9.92234
▁1997	-9.92311
▁विद्यापीठ	-9.92383
fi	-9.92467
▁अनेकदा	-9.92485
▁आरक्षण	-9.92495
▁Africa	-9.9252
▁develop	-9.92613
▁additional	-9.92641
▁मि	-9.92664
▁येणाऱ्या	-9.92675
▁Tommy	-9.92697
ven	-9.92738
▁कायदा	-9.92752
▁झ	-9.92827
▁पर्यंत	-9.92878
▁1998	-9.92902
▁पश्चिम	-9.92923
अर	-9.92946
▁नियोजन	-9.92997
si	-9.93002
▁एम	-9.93008
▁household	-9.93061
▁really	-9.93139
ries	-9.93168
शिवाय	-9.93224
▁प्रचार	-9.93268
▁finish	-9.93297
वजी	-9.93303
▁हक्क	-9.93321
▁operations	-9.93355
▁magazine	-9.93444
पद	-9.93447
▁engine	-9.93455
▁१४	-9.93534
▁density	-9.93545
▁spread	-9.93545
▁स्त्री	-9.93551
▁चांगली	-9.93565
▁योजने	-9.93603
und	-9.93617
▁previous	-9.93739
▁बाब	-9.93825
▁जेव्हा	-9.93846
▁label	-9.93853
▁buildings	-9.93865
▁hot	-9.93894
▁काल	-9.93896
▁वाटत	-9.93915
▁cast	-9.93918
ev	-9.93943
ise	-9.93964
िर	-9.93969
▁नदी	-9.9411
पर	-9.94111
18	-9.94119
▁ऑनलाइन	-9.94135
▁सतत	-9.94137
▁देवेंद्र	-9.94138
▁सिंह	-9.94145
क्र	-9.94191
▁Mark	-9.94226
▁currently	-9.94282
▁पराभव	-9.94371
भर	-9.94373
ौ	-9.9438
▁खाली	-9.94389
▁media	-9.9442
▁numerous	-9.9443
▁स्टेशन	-9.94434
▁केलेली	-9.94458
▁प्रकरणात	-9.94485
▁view	-9.94496
ru	-9.94542
▁धावा	-9.94559
▁call	-9.94622
▁bridge	-9.9468
▁metal	-9.94703
ator	-9.94744
▁तपासणी	-9.94803
▁सं	-9.94872
▁शिवाय	-9.94879
ुर	-9.94929
▁पथक	-9.9498
▁हल्ला	-9.95027
▁कल्याण	-9.95152
▁ready	-9.95152
▁d	-9.95164
▁entire	-9.95223
pp	-9.95254
▁Line	-9.95297
सारख्या	-9.9535
▁लांब	-9.95366
▁घेता	-9.955
१	-9.95536
▁लागते	-9.95566
स्थ	-9.95579
▁tail	-9.95595
▁b	-9.9561
▁ताब्यात	-9.95623
▁पहिला	-9.95623
▁मराठा	-9.95623
▁होणाऱ्या	-9.95641
▁एखाद्या	-9.95656
▁है	-9.95686
▁Ireland	-9.95698
du	-9.95758
▁बो	-9.95783
▁मनात	-9.95802
▁बाजारात	-9.95811
▁पडले	-9.95841
▁परिषद	-9.95858
▁Sue	-9.95923
▁decision	-9.95923
of	-9.95924
▁घेणे	-9.95929
▁देणे	-9.95945
▁doing	-9.95956
▁अन्न	-9.96029
▁येऊन	-9.96063
▁individual	-9.96173
▁द्या	-9.96182
▁(18	-9.96206
▁बाद	-9.96209
मंत्री	-9.9622
▁व्यावसायिक	-9.96226
▁रोग	-9.96276
▁कल्पना	-9.96287
▁जोड	-9.96305
▁परिसरातील	-9.96313
▁Sch	-9.96326
▁आतापर्यंत	-9.96386
▁draw	-9.96485
ssociated	-9.96487
▁earlier	-9.96526
▁grass	-9.9661
▁rights	-9.96773
▁बाल	-9.96789
▁Parliament	-9.96829
▁उत्पन्न	-9.96829
▁favorite	-9.96832
▁fourth	-9.96848
▁मंजूर	-9.9686
▁fight	-9.96878
▁संपर्क	-9.96893
▁Sir	-9.96897
▁Greek	-9.96907
ीचे	-9.96936
▁प्रकरणी	-9.96964
▁Cor	-9.9705
▁competition	-9.97089
▁port	-9.97121
लेली	-9.97207
▁पुरुष	-9.97219
ावा	-9.97262
▁doll	-9.97268
▁करणारे	-9.97291
ius	-9.97369
▁already	-9.97438
▁evidence	-9.97438
▁husband	-9.97438
▁ऑक्टोबर	-9.97438
▁Force	-9.97459
▁religious	-9.97468
▁इथे	-9.97469
▁majority	-9.97478
▁आधार	-9.97498
▁watch	-9.97519
end	-9.97525
mon	-9.97573
▁झालेला	-9.97674
▁Ni	-9.97726
fer	-9.9773
ide	-9.97733
▁leaving	-9.97744
▁morning	-9.97744
▁नव्हते	-9.97744
▁प्रतिसाद	-9.97744
▁कृषी	-9.97744
▁Fort	-9.97805
▁बा	-9.97884
▁offered	-9.97917
based	-9.97987
Don	-9.97993
▁Championship	-9.98025
▁धरण	-9.98034
▁भावना	-9.98044
▁जुलै	-9.98051
▁दर्जा	-9.98053
▁फिर	-9.98053
▁बोलत	-9.98057
२	-9.98069
▁wait	-9.98113
वत	-9.98115
▁मते	-9.98119
▁culture	-9.98174
od	-9.98226
▁Art	-9.983
▁watched	-9.98302
▁approximately	-9.98367
▁केस	-9.98438
Can	-9.98444
▁changes	-9.98446
▁आजार	-9.98489
वळ	-9.98493
ै	-9.98542
▁broke	-9.98602
▁branch	-9.98608
▁गुन्हे	-9.98665
▁निरीक्षक	-9.98667
▁राजकारण	-9.98681
▁hill	-9.98686
▁गुरुवारी	-9.98715
referred	-9.98759
▁अंतर्गत	-9.98766
▁increased	-9.98782
▁whole	-9.98805
▁collection	-9.98968
▁okay	-9.98977
▁करार	-9.99012
▁dress	-9.99038
▁staff	-9.99047
▁rate	-9.99052
मे	-9.99064
▁cold	-9.99075
16	-9.99078
▁Don	-9.99084
▁चांगला	-9.99097
▁separate	-9.99108
▁असलेला	-9.99202
▁increase	-9.99209
ill	-9.99212
▁Tri	-9.9923
▁complex	-9.99273
▁Academy	-9.99287
▁Government	-9.99287
ये	-9.99324
▁घडली	-9.99333
▁leaves	-9.99339
▁castle	-9.99364
▁अपेक्षा	-9.99365
▁पद्धतीने	-9.99372
▁catch	-9.99384
▁particularly	-9.99429
▁त्यातून	-9.9946
▁males	-9.99533
▁Tu	-9.9955
गे	-9.9955
▁जागतिक	-9.99599
ney	-9.9966
▁week	-9.99682
▁Virginia	-9.997
▁length	-9.99796
▁Congress	-9.99911
▁border	-9.99913
▁cake	-9.99925
▁function	-10.0005
▁leader	-10.0006
▁cost	-10.001
▁practice	-10.0011
▁रोड	-10.0016
▁travel	-10.0019
▁stories	-10.0022
▁वैद्यकीय	-10.0022
▁gold	-10.0023
▁picture	-10.0026
▁adventure	-10.0026
▁races	-10.0028
▁१६	-10.0032
▁Gu	-10.0039
▁annual	-10.0044
ever	-10.0045
▁घटने	-10.0046
▁Dad	-10.005
▁मोर्चा	-10.0054
▁संशोधन	-10.0054
▁Town	-10.0054
▁nine	-10.0055
▁प्रशासनाने	-10.006
▁सुंदर	-10.0061
बरोबर	-10.0068
▁flower	-10.0069
row	-10.0073
▁सहज	-10.0076
▁घ्या	-10.0078
▁देऊ	-10.0078
▁झालेले	-10.0079
▁Har	-10.0085
▁क्र	-10.0089
▁रोख	-10.0092
▁score	-10.0092
▁मुलांना	-10.0093
▁तळ	-10.0094
गड	-10.0096
▁musical	-10.01
▁सरकारला	-10.0102
▁दंड	-10.0106
▁meaning	-10.0106
▁g	-10.0107
सुमारास	-10.011
▁Paris	-10.0116
.5%	-10.0117
ub	-10.0117
▁ancient	-10.0117
▁future	-10.0117
▁kitchen	-10.0117
▁My	-10.0118
▁issue	-10.0121
▁राहिले	-10.013
40	-10.0132
ाच	-10.0135
दर	-10.0135
▁चि	-10.0137
▁Old	-10.0141
all	-10.0141
ji	-10.0146
▁एप्रिल	-10.0149
ाबाबत	-10.0149
▁characters	-10.015
▁battle	-10.0152
▁बि	-10.0153
दी	-10.0156
▁street	-10.0157
▁think	-10.0157
▁launched	-10.0164
▁अप	-10.0169
▁certain	-10.0171
▁fall	-10.0177
▁१७	-10.0178
▁energy	-10.0181
▁goodbye	-10.0181
▁जमा	-10.0182
▁appearance	-10.0185
▁उभे	-10.0185
▁science	-10.0192
▁wind	-10.0202
▁Bill	-10.0208
house	-10.0209
▁माझा	-10.0213
▁Du	-10.0214
▁बोलताना	-10.0214
▁Da	-10.0218
▁महाराज	-10.022
▁१३	-10.0221
▁stars	-10.0222
▁larger	-10.0227
ेकर	-10.0228
▁carried	-10.0245
▁देणार	-10.025
▁त्यांच्यावर	-10.0251
ical	-10.0254
नाथ	-10.0255
▁टी	-10.0258
्म	-10.027
ett	-10.0272
▁related	-10.0273
▁sports	-10.0276
▁financial	-10.0277
▁middle	-10.0277
tz	-10.0278
ai	-10.0281
▁माल	-10.0283
▁broken	-10.0284
▁self	-10.029
▁limited	-10.0291
▁एकाच	-10.0302
▁singer	-10.0305
▁होतात	-10.0305
▁Italy	-10.031
▁1991	-10.031
well	-10.031
▁थांब	-10.0311
▁direct	-10.0315
tal	-10.0315
▁student	-10.0315
ांशी	-10.0315
▁degree	-10.0319
▁देण्याची	-10.0321
▁complete	-10.0329
for	-10.0331
ious	-10.0337
ावी	-10.0343
▁cry	-10.0347
राम	-10.0357
▁व्यवस्था	-10.0361
▁shared	-10.0366
▁महाराष्ट्रात	-10.0369
सुद्धा	-10.037
▁federal	-10.0374
▁anymore	-10.0375
▁नव	-10.0377
▁Now	-10.0379
▁Soviet	-10.0379
▁असलेली	-10.0382
मि	-10.0382
००	-10.0387
▁chief	-10.0388
act	-10.039
ize	-10.0409
▁अर्थात	-10.0409
▁Pacific	-10.041
▁status	-10.0419
▁thing	-10.0419
▁believe	-10.0422
nt	-10.0426
ीची	-10.0427
sk	-10.0434
▁स्थापन	-10.0437
▁केलेले	-10.0439
▁कचरा	-10.0439
▁surface	-10.0439
▁anything	-10.0439
▁चे	-10.044
▁remains	-10.0458
▁2,	-10.0458
▁भाजपचे	-10.0459
ायचे	-10.046
ities	-10.0461
▁कुमार	-10.0461
car	-10.0468
▁शेवट	-10.047
▁curious	-10.0472
▁herself	-10.0475
▁inter	-10.0476
▁Lila	-10.048
▁स्वप्न	-10.0484
▁opening	-10.0487
▁पालक	-10.0488
▁western	-10.0488
▁कोणत्या	-10.0489
▁नेहमी	-10.0493
▁male	-10.0494
▁caused	-10.0495
▁health	-10.0495
▁legal	-10.0497
▁पट	-10.0499
▁असल्या	-10.05
▁Mac	-10.0506
▁शेअर	-10.0519
form	-10.0531
▁feature	-10.0533
▁influence	-10.0534
port	-10.0555
▁Lord	-10.0556
▁entered	-10.0557
▁ग्राहक	-10.0557
▁tall	-10.0562
▁बन	-10.0563
▁act	-10.0565
Look	-10.0569
▁वरिष्ठ	-10.0571
▁touch	-10.0571
▁गावात	-10.058
▁Angeles	-10.0581
▁Di	-10.0582
▁operated	-10.0582
▁म्हणतात	-10.0583
▁woman	-10.0587
▁वृत्त	-10.0591
▁speed	-10.0591
(	-10.0601
▁कार्ड	-10.0604
▁industry	-10.0604
▁नोंदणी	-10.0607
▁घेण्यासाठी	-10.061
▁attempt	-10.0623
▁साली	-10.0626
▁कायद्या	-10.063
▁सोडून	-10.0642
▁कसा	-10.0644
▁हाती	-10.0645
▁Law	-10.0646
▁Battle	-10.0646
▁farm	-10.0647
▁sat	-10.0651
▁multi	-10.0656
▁इशारा	-10.0656
▁अडचणी	-10.0659
▁कळ	-10.0663
▁owner	-10.0666
दरम्यान	-10.0669
▁दखल	-10.0671
▁सचिन	-10.0671
▁जमीन	-10.0672
▁फेब्रुवारी	-10.0676
▁व्या	-10.068
▁कट	-10.0682
▁Qu	-10.0686
▁Little	-10.0686
्यु	-10.0688
fe	-10.0691
25	-10.0692
▁बनव	-10.0696
▁प्रयोग	-10.0699
▁terms	-10.0699
▁variety	-10.0705
▁victory	-10.0705
▁जवळपास	-10.0705
tes	-10.0706
▁इमारती	-10.071
▁Jewish	-10.0711
▁29	-10.0712
▁चालक	-10.0716
▁विभागाने	-10.0717
▁contains	-10.0722
▁भागातील	-10.0725
चें	-10.0725
▁Best	-10.0732
ाकडून	-10.0735
town	-10.0738
▁प्रशिक्षण	-10.0738
▁Brown	-10.0738
ile	-10.0743
▁hold	-10.0744
▁la	-10.0749
▁वजन	-10.0749
ओ	-10.076
▁भाषा	-10.0761
▁particular	-10.0763
▁Martin	-10.0765
▁घेणार	-10.0766
12	-10.077
▁companies	-10.0772
▁यापूर्वी	-10.0772
ानुसार	-10.0773
▁सि	-10.0774
istic	-10.0774
▁स्व	-10.078
har	-10.078
▁minutes	-10.0781
▁break	-10.0788
▁Pe	-10.079
ny	-10.079
ps	-10.0792
▁represented	-10.0793
▁winning	-10.0793
berg	-10.08
▁झाल्याचे	-10.0802
▁1995	-10.0803
▁स्ट	-10.0803
.7%	-10.0804
▁अशोक	-10.0806
▁Northern	-10.0806
▁Navy	-10.0806
▁यांच्यावर	-10.0815
▁talk	-10.0819
पूर्णपणे	-10.0821
▁forced	-10.0822
head	-10.0828
▁cross	-10.0835
▁चीन	-10.0837
ीने	-10.0838
▁senior	-10.084
▁देशमुख	-10.084
▁Both	-10.0842
▁Finally	-10.0844
▁effect	-10.0853
ेशन	-10.0862
▁उमेदवारी	-10.0863
▁करण्याच्या	-10.0866
▁Day	-10.087
qu	-10.0871
ावरून	-10.0875
▁Sha	-10.0884
▁यांच्यासह	-10.0889
▁heart	-10.0891
▁Y	-10.0893
▁jumped	-10.0895
▁shot	-10.0896
▁personal	-10.0907
पट	-10.0907
▁करण्या	-10.091
▁according	-10.0919
▁Per	-10.092
▁लवकर	-10.0923
▁खरे	-10.0925
▁सर्वच	-10.0926
▁आलेले	-10.0929
▁बंदी	-10.093
▁पु	-10.0935
▁किंमत	-10.0938
▁प्राथमिक	-10.0943
▁शिर	-10.0944
ram	-10.0945
▁fact	-10.0947
▁raised	-10.0947
▁Radio	-10.095
▁करोना	-10.095
▁संघटना	-10.0952
▁discovered	-10.0956
▁भा	-10.096
▁तसे	-10.0966
iv	-10.0971
▁45	-10.0972
▁आत्महत्या	-10.0977
▁वर्षांपासून	-10.0979
.9%	-10.0981
▁blocks	-10.0983
▁Mr	-10.0987
▁विधान	-10.0992
▁Bank	-10.0994
▁deep	-10.0997
▁याचे	-10.0997
▁surprise	-10.1
▁Committee	-10.1012
▁1986	-10.1012
▁en	-10.102
▁sign	-10.1035
▁Ja	-10.1039
▁Republic	-10.1043
▁नियंत्रण	-10.1045
▁सर्वोच्च	-10.1046
▁pond	-10.1047
▁realized	-10.105
▁pay	-10.1052
▁army	-10.1054
▁distance	-10.1055
ंसाठी	-10.1056
णारे	-10.1065
ari	-10.1066
▁letter	-10.1068
▁तु	-10.1071
▁studies	-10.1081
▁initially	-10.109
▁असो	-10.1091
▁Chicago	-10.1093
▁scored	-10.1094
▁gas	-10.1097
▁बाजूला	-10.1099
▁पडला	-10.1099
▁movie	-10.11
▁सचिव	-10.1101
▁grabb	-10.1103
▁इच्छा	-10.1116
▁content	-10.1116
▁glad	-10.1117
▁hours	-10.1118
.1%	-10.1118
▁1994	-10.1122
lor	-10.1126
low	-10.1129
▁takes	-10.113
ib	-10.113
▁ई	-10.1131
▁hear	-10.1133
30	-10.1136
▁direction	-10.1146
.6%	-10.115
▁अंमलबजावणी	-10.1151
▁Daisy	-10.1151
La	-10.1155
▁Rock	-10.1158
▁२१	-10.1164
▁ध	-10.1167
▁date	-10.1179
▁defeated	-10.1179
nes	-10.1183
17	-10.1184
▁स्वतंत्र	-10.1185
▁housing	-10.1187
▁Valley	-10.1188
▁proposed	-10.119
▁घालून	-10.1193
▁meeting	-10.1195
▁महापौर	-10.1199
lu	-10.1201
ांमुळे	-10.1204
▁बसला	-10.1204
▁Jo	-10.1204
▁teacher	-10.1211
▁trying	-10.1212
▁goals	-10.1212
▁Jim	-10.1215
▁खेळाडू	-10.1215
lic	-10.122
▁नव्हता	-10.1222
▁Its	-10.1222
▁BBC	-10.1223
▁hole	-10.1226
▁theory	-10.1228
▁Irish	-10.1228
विरुद्ध	-10.1228
▁पुण्यात	-10.1229
▁संगीत	-10.123
hu	-10.1236
▁v	-10.1245
ek	-10.1245
▁वाटते	-10.1249
ृ	-10.1254
▁policy	-10.1257
▁worry	-10.1257
▁सुनावणी	-10.1258
▁3,	-10.126
▁सिद्ध	-10.1262
ani	-10.1264
▁Under	-10.1266
sha	-10.1266
▁२४	-10.1271
ping	-10.1271
त्र	-10.1283
▁पड	-10.1286
▁Mc	-10.1287
▁Sp	-10.1289
▁flight	-10.1292
▁Museum	-10.1293
▁themselves	-10.1293
▁सप्टेंबर	-10.1293
विरोधात	-10.1297
▁हर	-10.1301
.8%	-10.1304
▁मीटर	-10.1306
▁listed	-10.1307
ker	-10.1307
▁Ke	-10.1308
▁अॅ	-10.1309
Re	-10.131
val	-10.1321
.3%	-10.1323
▁cool	-10.1326
▁yummy	-10.1329
▁grew	-10.1329
▁spring	-10.1329
▁Pat	-10.133
▁यंत्रणा	-10.1331
▁noted	-10.1334
▁राणे	-10.1336
▁semi	-10.1348
▁operation	-10.1349
▁Service	-10.1352
▁Col	-10.1352
खा	-10.1354
▁Arts	-10.1358
▁recording	-10.1363
▁wrong	-10.1364
▁क्रीडा	-10.1365
▁सिंग	-10.1365
▁mouse	-10.1365
▁सांगत	-10.1377
▁1993	-10.1397
gg	-10.1399
▁stick	-10.14
▁sees	-10.1401
▁stayed	-10.1408
▁Frank	-10.1409
ning	-10.141
▁serving	-10.1412
▁कोणी	-10.1413
▁ड	-10.1415
▁सहकार्य	-10.1415
▁whom	-10.1417
Q	-10.1419
▁उलट	-10.1432
वले	-10.1433
▁दुसरा	-10.1437
▁Football	-10.1437
res	-10.1437
▁असली	-10.1442
▁उपाय	-10.1444
▁shouted	-10.1445
▁नागरिकांना	-10.1445
▁कल	-10.146
▁0	-10.147
▁activities	-10.1473
▁council	-10.1473
▁latter	-10.1473
▁शिक्षा	-10.1473
▁Theatre	-10.1473
▁Fa	-10.1479
▁managed	-10.1479
▁sp	-10.1479
▁wall	-10.1482
gan	-10.1484
tch	-10.1485
▁Pan	-10.1497
▁province	-10.1498
ves	-10.1498
ण्याचे	-10.1501
▁कलाकार	-10.1501
▁प्रभाव	-10.1505
▁foreign	-10.1509
▁वेगवेगळ्या	-10.1509
▁property	-10.151
▁Am	-10.1512
▁कुणी	-10.1513
▁होणे	-10.1516
tan	-10.1517
▁झोप	-10.1519
ice	-10.1524
ng	-10.1525
▁starting	-10.1526
▁En	-10.1532
▁gun	-10.1537
ful	-10.1544
▁व्हिडिओ	-10.1546
▁native	-10.1546
भा	-10.1548
▁असल्याचं	-10.1548
ren	-10.155
14	-10.1557
्यू	-10.1558
▁पूर्वी	-10.1561
▁लागल्या	-10.1564
▁तोंड	-10.1564
▁ठरले	-10.1564
▁chair	-10.1564
▁Super	-10.1565
▁commonly	-10.1569
▁difficult	-10.1571
▁host	-10.1573
▁problem	-10.1573
▁पोलिसांना	-10.1573
11	-10.1574
सारखे	-10.1578
.4%	-10.158
▁Festival	-10.1582
▁operate	-10.1583
my	-10.1584
▁पिक	-10.1585
▁अजित	-10.1585
▁Film	-10.1587
▁2001	-10.1592
▁Min	-10.1592
▁lesson	-10.1593
▁आयुष्य	-10.1596
▁eastern	-10.1599
▁शहा	-10.16
▁secret	-10.1611
▁याला	-10.1612
▁tracks	-10.1615
▁Sun	-10.1619
▁Zealand	-10.1619
▁museum	-10.1619
▁वारंवार	-10.1619
▁Earth	-10.1619
ating	-10.1622
▁हॉटेल	-10.1629
▁source	-10.1631
▁forms	-10.1634
▁believed	-10.1635
15	-10.1643
▁ज्ञान	-10.1644
ेट	-10.1645
▁drive	-10.1646
▁कार्यालयात	-10.1646
पण	-10.1652
▁एकच	-10.1653
▁issues	-10.1653
▁अतिरिक्त	-10.1656
▁1985	-10.1657
bel	-10.1658
▁rule	-10.166
▁मुंडे	-10.166
▁पाहून	-10.1663
▁असल्यास	-10.1665
jo	-10.1668
▁व्यवहार	-10.1669
▁Gar	-10.1672
▁घेण्या	-10.1673
▁बोल	-10.1677
▁sweet	-10.1682
▁bank	-10.1693
▁आवड	-10.1693
▁हिंदू	-10.1694
▁What	-10.1705
▁loss	-10.1706
▁wished	-10.1709
▁conditions	-10.1727
▁marriage	-10.173
▁अभिनेत्री	-10.173
▁dropped	-10.173
▁दल	-10.173
▁1982	-10.173
▁1971	-10.1731
▁1972	-10.1731
▁रक्त	-10.1731
▁1975	-10.1731
ria	-10.1732
▁कथा	-10.1734
▁supported	-10.1734
▁एन	-10.1737
▁medical	-10.1739
▁शाळेत	-10.1741
▁पुरवठा	-10.1742
िस	-10.1743
▁enjoyed	-10.1746
▁Billy	-10.1747
▁लिह	-10.1749
एस	-10.1755
av	-10.1755
ग्र	-10.176
▁Pre	-10.1762
uck	-10.1764
▁दुर्लक्ष	-10.1767
▁Middle	-10.1768
▁अमित	-10.177
▁Empire	-10.1772
▁block	-10.1772
▁lack	-10.1775
▁ठराव	-10.1779
▁Wa	-10.1779
dra	-10.178
▁वाघ	-10.1785
cent	-10.1788
लेला	-10.1794
▁Mu	-10.1795
▁hat	-10.1798
▁edition	-10.1799
▁review	-10.1801
cha	-10.1801
▁शे	-10.1804
▁tower	-10.1805
▁अचानक	-10.1805
▁baby	-10.1805
▁Lee	-10.1805
▁risk	-10.1806
▁Star	-10.1807
▁मनसे	-10.182
▁2.	-10.1822
ology	-10.183
▁path	-10.1833
gu	-10.1833
▁2016	-10.184
▁tournament	-10.1843
▁आगामी	-10.1843
▁1979	-10.1843
▁हवे	-10.1843
▁पाड	-10.1845
▁appear	-10.1857
▁multiple	-10.1859
▁घट	-10.1863
▁हत्या	-10.1872
▁grow	-10.1875
▁Over	-10.1875
पैकी	-10.1879
▁primarily	-10.188
▁जुन्या	-10.188
▁पाठिंबा	-10.188
▁मोबाईल	-10.188
▁क्षमता	-10.188
▁Up	-10.188
▁officer	-10.1884
▁सांगण्यात	-10.1886
▁specific	-10.1887
▁जाणून	-10.1887
▁removed	-10.1889
▁defeat	-10.1893
▁smaller	-10.1898
▁गा	-10.1899
▁cases	-10.1902
▁intended	-10.1903
gar	-10.1904
▁pieces	-10.1904
▁Ti	-10.1906
आय	-10.1911
▁comes	-10.1911
▁चौक	-10.1913
▁value	-10.1915
▁coast	-10.1917
▁response	-10.1918
▁विक्रम	-10.1918
▁व्यवस्थापन	-10.1918
▁Board	-10.192
▁cannot	-10.1922
▁Joseph	-10.1922
हा	-10.1925
▁Wood	-10.1926
▁समान	-10.1926
▁महापालिके	-10.1944
lon	-10.1951
.2%	-10.1954
▁prior	-10.1955
▁कठीण	-10.1956
▁नव्हती	-10.1956
▁uses	-10.1956
▁Everyone	-10.1958
▁सायंकाळी	-10.1958
▁funny	-10.1959
▁Republican	-10.1961
▁रस्ते	-10.1962
ीला	-10.1963
▁subsequently	-10.1963
▁Prince	-10.1964
▁महाविद्यालय	-10.1965
▁कशी	-10.1966
pur	-10.1973
▁महिन्या	-10.1973
▁आश्वासन	-10.1977
▁gone	-10.1978
ft	-10.1981
▁अस	-10.1986
▁2016,	-10.1988
▁Latin	-10.1988
▁covered	-10.1991
▁2013,	-10.1996
▁Jones	-10.1997
▁प्रकारे	-10.2002
don	-10.2005
कुमार	-10.2006
-19	-10.2006
▁जेवण	-10.2012
▁लाल	-10.2017
ीस	-10.2019
▁results	-10.202
▁cause	-10.2025
▁ma	-10.2028
▁तीव्र	-10.2029
▁animal	-10.203
▁Mon	-10.2032
▁responsible	-10.2033
▁शैक्षणिक	-10.2033
▁वक्तव्य	-10.2033
▁माझी	-10.2033
▁management	-10.2033
▁moral	-10.2034
espite	-10.2036
▁wear	-10.2037
▁४०	-10.2037
▁failed	-10.2038
▁getting	-10.2039
▁square	-10.204
टर	-10.2041
▁२२	-10.2046
▁असला	-10.2051
q	-10.2051
▁फुट	-10.2052
▁carefully	-10.2055
bu	-10.2057
▁names	-10.2058
▁ठिकाण	-10.2062
▁hair	-10.2062
शि	-10.2063
▁claim	-10.2064
▁lady	-10.2072
▁सोबत	-10.2078
▁Mi	-10.2079
▁giving	-10.2079
▁लावून	-10.208
ँ	-10.2096
▁भीती	-10.2099
De	-10.2101
▁आल्याने	-10.2101
ेड	-10.2103
▁artists	-10.2105
▁संयुक्त	-10.211
▁dry	-10.2112
▁immediately	-10.2113
▁राहील	-10.2114
▁दे	-10.2125
▁झाल्यास	-10.2125
ee	-10.2129
्त	-10.2129
In	-10.2133
▁recent	-10.2142
▁तंत्रज्ञान	-10.2143
▁Fe	-10.2144
▁spot	-10.2147
▁दूध	-10.2148
▁सांगितलं	-10.2148
ez	-10.2152
▁account	-10.2156
भूत	-10.2157
▁prevent	-10.2163
कोणतीही	-10.2165
्ट	-10.2169
▁वर्षांत	-10.2174
▁Th	-10.2179
▁डि	-10.2185
▁उल्लेख	-10.2187
▁studied	-10.2187
▁खातीर	-10.2187
▁माझे	-10.2188
▁Another	-10.2188
▁साजरा	-10.2188
▁cities	-10.2189
▁बाजू	-10.2189
▁युती	-10.2189
▁Public	-10.219
▁Chi	-10.2192
▁Edward	-10.2192
▁presented	-10.2192
▁residents	-10.2194
▁महिन्यां	-10.2196
आर	-10.2196
▁arms	-10.22
▁issued	-10.2202
▁ring	-10.2202
▁नावे	-10.221
▁colors	-10.2215
▁सामन्यात	-10.2226
▁Bridge	-10.2227
▁renamed	-10.2227
▁Ad	-10.2228
▁Q	-10.223
▁Par	-10.2231
▁बार	-10.2231
▁acquired	-10.2232
▁प्रणाली	-10.2235
ाचो	-10.2239
▁स्वीकार	-10.224
वली	-10.2241
र्ट	-10.2245
▁news	-10.2251
▁mountain	-10.2254
▁stone	-10.226
.0%	-10.226
▁येण्या	-10.2261
▁यु	-10.2264
▁शर्मा	-10.2266
▁1989	-10.2266
▁scene	-10.2266
▁doctor	-10.2267
▁retired	-10.2268
णारा	-10.2273
▁numbers	-10.2273
▁सहकारी	-10.2274
▁शक्ती	-10.228
▁पोस्ट	-10.2282
▁month	-10.2282
▁vote	-10.229
▁१००	-10.2295
ुक	-10.2295
▁तू	-10.2296
▁focus	-10.2297
क्या	-10.2298
vin	-10.2302
▁Mexico	-10.2305
▁अनिल	-10.2306
▁फटका	-10.231
▁nearly	-10.2312
▁constructed	-10.2316
▁राख	-10.2316
back	-10.2318
सिंग	-10.232
▁fix	-10.232
▁extended	-10.2322
▁moment	-10.2323
ative	-10.2329
▁format	-10.2329
र्क	-10.2332
▁Ku	-10.2338
▁wet	-10.2341
▁जाणाऱ्या	-10.2347
▁यादी	-10.2349
▁appears	-10.235
ano	-10.2353
▁friendly	-10.236
▁oil	-10.2362
▁भु	-10.2364
▁""	-10.2366
▁hide	-10.237
▁remaining	-10.2372
▁Louis	-10.2373
िम	-10.2376
▁programs	-10.2378
▁Ge	-10.2379
▁bunny	-10.2384
▁बाबतीत	-10.2385
▁जनता	-10.2388
ोर	-10.2389
13	-10.2391
▁Van	-10.2393
▁filled	-10.2396
▁Queen	-10.2399
▁protect	-10.2402
▁Si	-10.2403
▁साखर	-10.2408
ऊ	-10.2409
▁पडत	-10.2416
न्	-10.2419
yl	-10.242
▁tax	-10.2423
▁निसर्ग	-10.2424
▁राऊत	-10.2424
▁दिवसांपासून	-10.2425
ay	-10.2428
Hi	-10.2429
▁महापालिकेच्या	-10.2431
▁gain	-10.2439
▁remembered	-10.2442
▁गरजेचे	-10.2445
▁forward	-10.2449
ेश्वर	-10.2452
▁पाहता	-10.2458
▁crew	-10.2464
▁nature	-10.2464
▁मुलगी	-10.2464
▁1981	-10.2465
▁saying	-10.2466
ांक	-10.2468
▁ठेवून	-10.247
▁mum	-10.2473
▁ate	-10.2476
▁रचना	-10.2479
ery	-10.248
▁produce	-10.2492
▁mass	-10.2502
▁परिसर	-10.2503
ठा	-10.2504
▁plans	-10.2504
▁potential	-10.2504
▁1984	-10.2505
▁divided	-10.2507
श्	-10.2507
▁इंग्लंड	-10.2508
▁Wales	-10.2508
▁म्हणजेच	-10.2516
▁computer	-10.2518
▁पुण्या	-10.2524
▁घड	-10.2528
▁represent	-10.2528
▁provides	-10.2529
▁directly	-10.2529
▁jump	-10.2534
og	-10.2538
गी	-10.2543
▁पहिली	-10.2545
▁cried	-10.2545
▁frog	-10.2545
▁मुलगा	-10.2545
▁1964	-10.2545
▁सक्षम	-10.2545
क्त	-10.2548
Hello	-10.2554
▁problems	-10.2555
▁समितीच्या	-10.2555
▁artist	-10.2555
▁केलेला	-10.2564
▁Amy	-10.2566
▁कॉंग्रेस	-10.2569
▁Asian	-10.2571
tar	-10.2573
▁pass	-10.2578
▁historical	-10.2579
▁पुर	-10.2583
▁else	-10.2585
▁जिल्हाधिकारी	-10.2585
▁places	-10.2587
ica	-10.259
▁relationship	-10.2591
▁पडली	-10.2592
▁winter	-10.2593
ेच्या	-10.2595
top	-10.2596
TV	-10.2599
▁शो	-10.2605
▁हातात	-10.2609
▁likely	-10.2612
▁poor	-10.2617
▁parish	-10.262
▁beach	-10.2623
▁वृत्तसेवा	-10.2626
▁1977	-10.2626
▁bus	-10.2627
ick	-10.263
▁sit	-10.2631
▁सभा	-10.2635
▁selected	-10.2636
Wow	-10.2639
▁शुल्क	-10.2639
▁award	-10.2643
्ज	-10.2645
▁अंतर	-10.2648
ik	-10.2649
▁Men	-10.2651
iz	-10.2651
▁claimed	-10.2652
▁Land	-10.2652
ray	-10.2654
uff	-10.2656
▁Big	-10.2656
▁initial	-10.2657
▁prominent	-10.2667
▁मंजुरी	-10.2667
▁मुंबईतील	-10.267
▁हस्ते	-10.267
▁typically	-10.2672
▁flying	-10.2674
▁waved	-10.2676
▁कसोटी	-10.2682
▁मोड	-10.269
▁ride	-10.2706
▁butterfly	-10.2708
▁1965	-10.2708
ged	-10.2708
▁surrounding	-10.2711
▁Second	-10.2711
▁Railway	-10.2715
▁सहभाग	-10.2729
▁channel	-10.2736
▁शासन	-10.2743
▁मानले	-10.2744
▁split	-10.2749
▁1968	-10.2749
▁yet	-10.2749
▁Of	-10.2753
▁broadcast	-10.2754
▁Route	-10.2755
ड्या	-10.2755
▁असतं	-10.2755
▁Southern	-10.2756
▁1974	-10.2757
uch	-10.2758
्याच्या	-10.276
bar	-10.2763
▁राजा	-10.2769
▁lines	-10.2769
▁येतील	-10.2776
▁r	-10.2776
▁घेऊ	-10.2783
▁मार्गदर्शन	-10.279
60	-10.2791
▁सल्ला	-10.2791
her	-10.2796
▁दिवसांत	-10.2797
▁workers	-10.2799
▁concept	-10.2803
▁सुरक्षित	-10.2806
▁हु	-10.2807
▁connect	-10.2811
▁निवडून	-10.2817
▁तातडीन	-10.2823
▁Blue	-10.2823
▁म्हटलं	-10.2826
▁looks	-10.2828
▁मान्य	-10.2839
▁treatment	-10.2839
▁window	-10.2842
ष्ट	-10.2846
ार्थ	-10.285
▁मात	-10.285
▁writer	-10.2865
▁वापरले	-10.2865
▁kids	-10.2865
ण्यास	-10.2867
so	-10.287
▁houses	-10.2873
▁Florida	-10.2873
▁despite	-10.2874
▁gives	-10.2875
▁Gi	-10.2875
▁stand	-10.288
ळ्या	-10.2883
वाद	-10.2884
▁newspaper	-10.2884
▁receive	-10.2886
ade	-10.2887
▁clear	-10.289
ign	-10.2892
▁Year	-10.2893
work	-10.2896
▁वाच	-10.2897
sta	-10.29
▁mo	-10.2907
▁प्रत्यक्ष	-10.2914
▁माणूस	-10.2915
▁pressure	-10.2916
ised	-10.2917
▁कप	-10.2918
▁follow	-10.2918
▁लेखक	-10.2921
क्	-10.2922
▁काहीही	-10.2925
wi	-10.2927
ळा	-10.2929
▁जल	-10.2933
गत	-10.2935
▁Education	-10.2937
23	-10.2943
▁चोरी	-10.2944
▁पद्धती	-10.2949
▁मालक	-10.2949
▁Avenue	-10.2957
▁moving	-10.2957
▁स्वागत	-10.2957
▁आंबेडकर	-10.2961
▁विद्यार्थ्यांनी	-10.2961
▁तुलनेत	-10.2962
▁विशेषत	-10.2964
▁swing	-10.2966
▁color	-10.2971
▁सन	-10.2972
▁प्रदर्शन	-10.2975
24	-10.2979
▁regional	-10.2985
sis	-10.2986
▁types	-10.2991
▁फि	-10.2994
▁Bu	-10.2995
▁foot	-10.2996
▁मेट्रो	-10.2999
▁weeks	-10.2999
bre	-10.3002
▁experience	-10.3005
▁नागरिकांनी	-10.3007
▁काढले	-10.301
▁matches	-10.3013
▁संत	-10.3014
▁horse	-10.3023
ावरील	-10.3024
▁भाजपच्या	-10.3027
▁पात्र	-10.3032
▁bi	-10.3034
▁Russia	-10.3034
▁मुद्दा	-10.3036
▁mission	-10.3041
▁पर्यावरण	-10.3042
▁firm	-10.3042
▁पाहिले	-10.3042
▁Dutch	-10.3042
▁Spain	-10.3043
▁सांगली	-10.3047
▁meant	-10.3058
▁नाग	-10.3059
▁Za	-10.3061
zi	-10.3063
▁establish	-10.3067
▁2013	-10.3074
▁Ex	-10.3077
▁campus	-10.308
▁Eastern	-10.3084
▁Civil	-10.3084
▁true	-10.3084
▁1930	-10.3085
▁कविता	-10.3085
▁जोशी	-10.309
▁रुपयांची	-10.3093
▁दहशतवादी	-10.3093
▁identified	-10.3096
▁machine	-10.3098
▁देण्याचा	-10.3099
▁अॅड	-10.3099
▁du	-10.3101
▁राष्ट्र	-10.3102
▁era	-10.3103
▁योग	-10.3107
▁Dan	-10.3115
ांसह	-10.3122
▁लगेच	-10.3127
▁estate	-10.3127
▁हवामान	-10.3128
▁फरक	-10.3128
▁काळा	-10.3132
▁Ya	-10.3134
▁blood	-10.3134
▁यादव	-10.3141
▁troops	-10.3144
Ro	-10.3145
21	-10.3147
ाल	-10.3153
▁ships	-10.3159
su	-10.316
▁civil	-10.3162
▁whe	-10.3164
ita	-10.3169
▁मृतदेह	-10.317
▁tired	-10.3172
pro	-10.3173
▁alongside	-10.3173
▁मालिका	-10.3174
▁piece	-10.3174
▁रुपयांचा	-10.3178
▁शासकीय	-10.3178
▁आधीच	-10.3184
▁revealed	-10.3184
▁ये	-10.3185
▁upper	-10.3186
▁settlement	-10.3191
▁Fi	-10.3194
▁amount	-10.3197
▁शेवटी	-10.3198
▁मूल	-10.3203
▁Mike	-10.3204
ins	-10.3206
▁सत्य	-10.3208
▁Long	-10.321
▁Before	-10.3213
▁judge	-10.3213
▁प्रतिक्रिया	-10.3213
▁System	-10.3213
▁everything	-10.3213
▁1945	-10.3214
▁सवाल	-10.3215
▁विभागात	-10.3217
▁Major	-10.3218
▁याने	-10.3219
▁पती	-10.3228
▁फुल	-10.3229
▁cultural	-10.323
▁murder	-10.3231
▁जन	-10.3232
▁सम	-10.3235
▁plants	-10.324
▁यांच्याकडे	-10.3244
ef	-10.3247
▁report	-10.325
▁धक्का	-10.3256
▁distribution	-10.3256
▁बाळासाहेब	-10.3256
▁पालिका	-10.3256
▁1969	-10.3257
्ड	-10.3257
▁1940	-10.3257
burg	-10.3258
▁Commission	-10.3258
▁दिसते	-10.3259
war	-10.3261
Do	-10.3262
▁नको	-10.3265
▁पो	-10.3266
▁brown	-10.3266
▁Chief	-10.3268
▁conducted	-10.3271
26	-10.3271
▁coat	-10.3273
शन	-10.3275
▁1920	-10.3277
▁products	-10.3278
▁extra	-10.3284
▁पातळीवर	-10.3285
▁केल्याने	-10.3296
▁यानंतर	-10.3296
rick	-10.3299
▁Assembly	-10.33
▁Scotland	-10.33
▁विनंती	-10.33
▁composed	-10.33
▁दीड	-10.33
▁1973	-10.33
▁1967	-10.33
▁स्वच्छ	-10.3302
▁compared	-10.3304
▁पोट	-10.3306
sch	-10.3308
▁२३	-10.3313
ification	-10.3313
्यावर	-10.3319
uk	-10.332
▁Israel	-10.333
▁1988	-10.3331
▁दर्शन	-10.3332
ok	-10.3335
ff	-10.334
▁कॅ	-10.3341
▁मृत	-10.3343
▁territory	-10.3343
▁dinner	-10.3343
▁आदिवासी	-10.3343
▁पाहायला	-10.3344
▁जप्त	-10.3345
rr	-10.3346
▁आहार	-10.3346
▁remain	-10.3351
von	-10.3356
▁growth	-10.3358
▁लागून	-10.3365
▁carry	-10.3368
▁bowl	-10.3376
▁laugh	-10.3376
▁holding	-10.3383
▁मार्गावर	-10.3384
▁गुजरात	-10.3386
▁दररोज	-10.3387
▁मोबाइल	-10.3387
▁सुनील	-10.3387
▁Democratic	-10.3388
ini	-10.3389
▁कर्नाटक	-10.3389
▁अवलंबून	-10.3389
▁Ab	-10.339
can	-10.3395
▁Awards	-10.3402
▁write	-10.3402
▁destroyed	-10.3404
▁तिचा	-10.341
▁producer	-10.3418
▁miles	-10.3421
▁2004,	-10.3423
▁III	-10.3428
▁meet	-10.3428
▁विशिष्ट	-10.3431
▁planned	-10.3432
▁Jimmy	-10.3432
▁unique	-10.3433
▁हवी	-10.3433
▁executive	-10.3437
▁officers	-10.3439
ski	-10.344
▁तापमान	-10.344
गर	-10.3443
ens	-10.3449
tre	-10.3451
▁कलम	-10.3453
▁Soon	-10.3454
मागे	-10.3455
▁दुष्काळ	-10.3455
▁climb	-10.3464
This	-10.3465
▁धु	-10.3471
▁Port	-10.3471
mann	-10.3473
▁अभ्यासक्रम	-10.3475
▁therefore	-10.3475
▁सावंत	-10.3476
▁Boston	-10.3476
▁depend	-10.3484
▁People	-10.3485
▁corner	-10.3487
▁storm	-10.3487
▁Williams	-10.3488
▁enter	-10.3491
▁double	-10.3492
▁रोहित	-10.3493
▁matter	-10.3497
▁product	-10.3499
▁ऑस्ट्रेलिया	-10.3505
▁fair	-10.3511
▁पर्यटक	-10.3515
▁चालव	-10.3516
रु	-10.3519
▁लावण्या	-10.3519
▁कर्णधार	-10.352
▁bought	-10.352
▁उद्देश	-10.352
▁Britain	-10.352
▁चांगल्या	-10.352
▁overall	-10.3528
▁प्रवासी	-10.3528
▁युवा	-10.3533
art	-10.3534
▁dead	-10.3534
▁Ru	-10.3534
▁surprised	-10.3535
▁Sally	-10.3536
▁जिल्ह्या	-10.3541
▁Ch	-10.3546
▁t	-10.3548
तर	-10.3548
▁आवश्यकता	-10.3549
▁mentioned	-10.3549
▁singing	-10.355
▁Science	-10.355
rac	-10.3552
▁जाता	-10.3553
▁कान	-10.3554
▁परि	-10.3558
▁तालुक्यात	-10.3562
▁24,	-10.3563
▁ठार	-10.3565
पाल	-10.3568
▁Benny	-10.357
वं	-10.3573
▁आशा	-10.3573
▁लि	-10.3574
▁अंग	-10.3577
▁निवडणुकी	-10.3583
▁मुक्त	-10.3584
ula	-10.3595
▁follows	-10.3597
▁नियुक्ती	-10.3597
tur	-10.36
▁elements	-10.3601
ual	-10.3606
▁airport	-10.3611
▁सुद्धा	-10.3615
▁निर्देश	-10.3617
▁द्यावे	-10.3619
▁शतक	-10.3623
▁onto	-10.3625
ire	-10.3625
▁brand	-10.3627
▁highly	-10.3634
क्स	-10.3635
van	-10.3635
▁lion	-10.3637
▁विभागाच्या	-10.3637
▁figure	-10.3638
▁कालावधी	-10.364
▁hall	-10.3641
▁सकारात्मक	-10.3654
▁पाहणी	-10.3655
▁दुसरीकडे	-10.3656
▁दिन	-10.3657
▁दा	-10.3659
तरी	-10.3664
▁Ram	-10.3665
पे	-10.3671
▁खंड	-10.3673
▁प्रकारच्या	-10.3674
▁शिक	-10.3674
▁ask	-10.3679
▁wants	-10.368
yn	-10.369
▁pet	-10.3691
▁उद्या	-10.3698
▁गोंधळ	-10.37
▁seasons	-10.3703
▁ब्र	-10.3703
▁earned	-10.3706
▁देताना	-10.3706
▁promoted	-10.3707
▁संस्कृती	-10.3709
▁इन	-10.371
म्	-10.3714
▁approach	-10.3714
nce	-10.3715
ंडे	-10.3734
िश	-10.3736
▁पेक्षा	-10.3742
▁offer	-10.3743
▁वर्णन	-10.3743
▁snow	-10.3743
▁editor	-10.3744
▁कार्यकर्ते	-10.3745
over	-10.3748
rum	-10.3751
ala	-10.3753
▁notable	-10.3755
▁edge	-10.3756
80	-10.376
▁press	-10.3762
▁widely	-10.3764
▁मारहाण	-10.3765
An	-10.3767
्री	-10.3769
▁नाराजी	-10.3769
▁32	-10.3782
▁perfect	-10.379
▁flag	-10.3791
▁equipment	-10.3791
▁कार्यरत	-10.3791
cher	-10.3801
ल्यावर	-10.3801
▁एसटी	-10.3809
▁soldiers	-10.3809
▁मंडळा	-10.3814
▁honor	-10.3816
amp	-10.3817
▁helping	-10.382
▁य	-10.382
kh	-10.3825
ांकडे	-10.3834
▁वाटप	-10.3834
▁creation	-10.3837
▁happily	-10.3837
▁वर्षांपूर्वी	-10.3837
▁1978	-10.3837
▁wonderful	-10.3837
▁agreement	-10.3837
▁estimated	-10.3839
▁असणे	-10.384
▁राव	-10.3841
▁जमिनी	-10.3843
▁positive	-10.3844
des	-10.3844
▁नसून	-10.3846
▁स्वातंत्र्य	-10.385
let	-10.3852
▁हेच	-10.3855
▁Sever	-10.3857
▁perform	-10.3863
▁effects	-10.3863
▁दुरुस्ती	-10.3865
▁sing	-10.3869
▁दृष्टीने	-10.3871
▁सदर	-10.3875
ात्मक	-10.3875
cle	-10.3878
▁युवक	-10.3879
बे	-10.3879
▁communities	-10.3883
▁situation	-10.3883
▁technology	-10.3883
▁निषेध	-10.3883
▁पृथ्वी	-10.3883
▁सोसायटी	-10.3883
▁विराट	-10.3883
▁interview	-10.3885
ju	-10.3886
▁आजही	-10.3888
▁म्हणूनच	-10.3888
▁largely	-10.3888
▁fifth	-10.3889
▁super	-10.3895
▁बळी	-10.3897
▁Times	-10.3901
▁डाव	-10.3916
▁driver	-10.3916
▁appearances	-10.3924
▁guitar	-10.3925
▁अपेक्षित	-10.3929
▁मॉडेल	-10.3929
▁धडक	-10.3929
▁Airport	-10.393
▁Water	-10.3933
▁explained	-10.3938
▁Young	-10.3945
▁suggested	-10.3946
now	-10.3947
▁Station	-10.3949
प्ल	-10.3951
नो	-10.3956
▁केल्यास	-10.3956
▁करप	-10.3957
▁बिल	-10.3958
▁championship	-10.3959
▁कॉ	-10.3965
▁पहा	-10.3969
▁त्यातील	-10.3969
gy	-10.3972
▁Hi	-10.3974
▁hopped	-10.3976
▁कपडे	-10.3976
▁असणाऱ्या	-10.3977
▁adopted	-10.3982
▁ओढ	-10.3988
▁Home	-10.3999
▁देण्या	-10.4005
▁Pu	-10.4006
▁महामार्ग	-10.4014
▁minor	-10.4021
▁pictures	-10.4021
▁caught	-10.4023
▁Games	-10.4024
▁म्हणणे	-10.4025
▁sales	-10.4025
▁काहीतरी	-10.403
थवा	-10.403
▁बाळ	-10.4031
ack	-10.4031
▁मान्यता	-10.4035
▁BC	-10.4036
ath	-10.4037
दे	-10.4038
5%	-10.4041
air	-10.4043
▁efforts	-10.4044
▁याप्रकरणी	-10.4046
▁tradition	-10.4046
▁200	-10.4047
cal	-10.4049
▁उपयोग	-10.4049
▁युद्ध	-10.405
▁gained	-10.4052
35	-10.4052
28	-10.4062
▁rise	-10.4064
▁politician	-10.4069
▁operating	-10.407
यर	-10.4071
▁Also	-10.4073
न्न	-10.4075
▁काँग्रेसच्या	-10.4075
▁संघर्ष	-10.4078
▁रोज	-10.408
▁करात	-10.4081
▁तोड	-10.4087
▁Pi	-10.4091
▁ले	-10.4092
ese	-10.4093
र्न	-10.4101
▁काश्मीर	-10.4104
पि	-10.4104
▁prison	-10.4105
mb	-10.4106
▁आठवड्यात	-10.4106
▁सगळे	-10.4107
▁actor	-10.4109
▁charge	-10.4109
▁i	-10.411
▁Asia	-10.4111
▁Research	-10.4116
▁attention	-10.4116
▁Coast	-10.4116
▁नाईक	-10.4117
▁धोका	-10.4117
ky	-10.4118
▁शेख	-10.4118
▁सुरुवातीला	-10.4118
▁Molly	-10.412
▁scale	-10.412
▁उत्सव	-10.412
मु	-10.4121
sky	-10.4125
▁महत्त्वाचे	-10.4125
▁ठरला	-10.4126
▁1976	-10.4126
▁weight	-10.4126
▁मीडिया	-10.4131
▁fuel	-10.4135
▁avoid	-10.4138
▁घ	-10.4139
▁निवडणुकीच्या	-10.4143
yo	-10.4147
▁concert	-10.415
थील	-10.4154
▁arm	-10.4158
▁कौतुक	-10.4164
▁delicious	-10.4164
▁पहिले	-10.4164
▁सोपे	-10.4164
▁society	-10.4164
▁impact	-10.4165
▁जगातील	-10.4176
▁accepted	-10.4182
▁परिस्थितीत	-10.4182
▁understand	-10.4182
▁कर्मचाऱ्यां	-10.4184
▁rules	-10.4186
▁दिवाळी	-10.4186
▁Prime	-10.4189
ified	-10.4197
▁mouth	-10.4197
▁method	-10.4198
▁जम	-10.421
▁drama	-10.4211
▁contact	-10.4211
▁माहीत	-10.4212
ped	-10.4213
▁महिने	-10.4214
▁Director	-10.4214
▁transferred	-10.4215
len	-10.4217
▁reduced	-10.4221
▁सुट	-10.4223
88	-10.4226
▁संदर्भात	-10.4234
▁सांग	-10.4243
▁Cat	-10.4247
▁ability	-10.4248
६	-10.4251
ec	-10.4251
▁करणारा	-10.4253
▁Mount	-10.4259
▁paid	-10.426
▁4,	-10.426
▁mind	-10.426
▁भरपूर	-10.4262
▁आल्यानंतर	-10.4266
▁नेहमीच	-10.4266
▁purchased	-10.4267
▁लोकल	-10.4289
▁greater	-10.4294
▁समुद्र	-10.4295
▁duck	-10.4297
mm	-10.4299
गो	-10.4299
ेज	-10.4305
गिरी	-10.4305
▁Ohio	-10.4307
▁monster	-10.4307
▁teddy	-10.4307
▁taught	-10.4307
▁दरवर्षी	-10.4308
▁लिहिले	-10.4308
▁Show	-10.4311
▁2001,	-10.4312
▁ठेवा	-10.4314
▁आढावा	-10.4316
▁master	-10.4322
▁याचिका	-10.4324
▁देण्याचे	-10.4325
pan	-10.4325
▁स्वरूप	-10.433
▁गोल	-10.4342
▁Bre	-10.4343
▁department	-10.4344
▁levels	-10.4345
▁birth	-10.4355
▁नेतृत्व	-10.4355
▁climate	-10.4356
▁चंद्रकांत	-10.4356
▁पंचायत	-10.4356
▁basis	-10.4356
▁Pennsylvania	-10.4357
▁Cross	-10.4358
देव	-10.4362
िट	-10.4363
▁Love	-10.4363
bury	-10.4365
▁महत्त्वाची	-10.4368
ix	-10.4375
▁pulled	-10.4375
▁opera	-10.438
णारी	-10.4392
▁camp	-10.4393
▁भाऊ	-10.4394
which	-10.44
▁चाल	-10.44
▁Governor	-10.4403
ns	-10.4403
▁बलात्कार	-10.4404
▁featuring	-10.4404
▁वैयक्तिक	-10.4404
▁पडल्या	-10.4405
▁चड	-10.4406
▁suffered	-10.4409
▁hotel	-10.441
▁उभार	-10.4411
वरुन	-10.4412
▁मिळते	-10.4417
ser	-10.4418
▁साधन	-10.442
▁f	-10.442
▁महाराष्ट्रातील	-10.443
▁सो	-10.443
▁३१	-10.4432
lam	-10.4435
▁पक्षाचे	-10.4436
lia	-10.444
▁पाळ	-10.4446
▁portion	-10.4446
water	-10.4452
▁administration	-10.4453
▁facilities	-10.4453
▁gift	-10.4453
▁website	-10.4453
▁languages	-10.4454
▁capacity	-10.4454
▁Just	-10.4455
▁संशयित	-10.4455
▁respectively	-10.4456
▁respect	-10.4457
vis	-10.4464
▁Johnson	-10.4464
nu	-10.4466
बरोबरच	-10.4466
लि	-10.4471
era	-10.448
▁टप्प्यात	-10.448
▁18,	-10.4482
▁पाण्या	-10.4484
ीम	-10.4484
Me	-10.4486
▁conflict	-10.4492
▁निवेदन	-10.4495
▁कृती	-10.4501
▁ordered	-10.4501
▁उद्घाटन	-10.4502
▁चिंता	-10.4502
▁percent	-10.4503
▁नऊ	-10.4508
▁भविष्यात	-10.4508
ंय	-10.4508
▁लागतो	-10.4512
दि	-10.4514
▁पार्टी	-10.4514
ris	-10.4517
▁organized	-10.4518
▁होतील	-10.4519
▁Tour	-10.452
▁जाय	-10.4525
▁साथ	-10.4528
लें	-10.4534
king	-10.4534
▁Gra	-10.454
use	-10.4543
▁...	-10.4543
uri	-10.4545
कि	-10.4548
▁मानसिक	-10.4548
▁सरासरी	-10.455
▁कारभार	-10.4551
▁येथून	-10.4551
▁इंटरनेट	-10.4551
▁Carolina	-10.4551
▁बैठकी	-10.4552
▁signal	-10.4553
▁नसेल	-10.4554
▁शेतकऱ्यांना	-10.4556
▁records	-10.4556
▁आप	-10.4564
▁कालावधीत	-10.4567
▁question	-10.4568
▁officially	-10.4573
हर	-10.458
▁नक्की	-10.4582
▁reference	-10.4582
▁slow	-10.4584
कल	-10.4586
▁सुधारणा	-10.4589
▁please	-10.4589
▁medal	-10.4595
▁दिलं	-10.4596
▁जाती	-10.4597
सिंह	-10.4598
class	-10.46
नमूद	-10.4601
▁कदम	-10.4601
▁professor	-10.4601
▁सातारा	-10.4601
▁declared	-10.4603
▁scary	-10.4605
▁k	-10.4606
▁wings	-10.4606
▁प्रभावी	-10.4607
▁expected	-10.4609
▁मनपा	-10.4612
▁साठी	-10.4616
▁solo	-10.4616
▁फळ	-10.4622
▁नकार	-10.4625
▁विभागाचे	-10.4625
र्त	-10.4627
थापि	-10.4631
▁रिक्षा	-10.4635
▁damage	-10.464
▁काहीच	-10.4643
shi	-10.4644
▁अनुदान	-10.4648
tain	-10.4649
▁academic	-10.4651
▁आधुनिक	-10.4651
▁संगणक	-10.4651
▁सर्वसामान्य	-10.4651
▁1957	-10.4651
▁lives	-10.4652
▁sector	-10.4652
ापर्यंत	-10.4654
्यांच्या	-10.466
▁text	-10.4661
▁भाजपने	-10.4664
▁parties	-10.4664
बर	-10.4665
▁भरती	-10.467
▁मिळव	-10.4676
▁विनोद	-10.4681
ल्याचे	-10.4687
ew	-10.4687
३	-10.4689
▁याकडे	-10.4695
▁cells	-10.4697
ॉल	-10.4698
▁dedicated	-10.4701
▁विस्तार	-10.4701
▁महसूल	-10.4701
▁presence	-10.4701
▁Alexander	-10.4701
▁रोजगार	-10.4701
▁शकेल	-10.4701
▁नंबर	-10.4703
CC	-10.4704
▁नैसर्गिक	-10.4705
▁भो	-10.4707
▁Because	-10.4709
dic	-10.4711
▁जळगाव	-10.4712
▁shown	-10.4713
▁Bur	-10.4713
▁regions	-10.4713
▁recently	-10.4713
▁industrial	-10.4714
▁अंश	-10.4721
▁कोकण	-10.4721
यो	-10.4722
▁Jr	-10.4725
▁goes	-10.4731
▁Ver	-10.4733
▁mine	-10.4734
▁continue	-10.4736
▁खरं	-10.4739
Le	-10.4743
▁search	-10.4746
pu	-10.4746
▁विवाह	-10.4747
▁Che	-10.4749
▁wave	-10.475
▁traffic	-10.4751
▁गायकवाड	-10.4751
▁1966	-10.4751
▁मानवी	-10.4753
▁में	-10.4757
▁हजारो	-10.4759
▁promised	-10.476
▁slowly	-10.4761
▁albums	-10.4767
▁teaching	-10.4768
कु	-10.477
▁नारायण	-10.4776
▁बाग	-10.4778
▁stream	-10.4779
▁Office	-10.4781
ations	-10.4785
▁भू	-10.4795
gn	-10.48
▁refused	-10.4808
▁newly	-10.4808
▁trip	-10.4811
izing	-10.4811
cho	-10.4815
▁titled	-10.4817
Co	-10.4828
▁35	-10.4832
▁दुकान	-10.4832
▁simple	-10.4834
27	-10.4835
▁Gr	-10.484
ition	-10.4842
▁wing	-10.4846
▁Com	-10.4849
ग्रस्त	-10.4851
पाक	-10.4851
▁असतानाच	-10.4852
▁Supreme	-10.4852
▁सोलापूर	-10.4852
▁सोय	-10.4854
▁Order	-10.4854
▁भाजपला	-10.4854
▁Ham	-10.4855
▁township	-10.4857
▁घडव	-10.4857
▁दारू	-10.4858
▁yes	-10.4859
▁आणले	-10.486
▁काढण्यात	-10.4862
▁sleep	-10.4862
▁Today	-10.4864
▁बाकी	-10.4864
ीच	-10.4875
▁वाढले	-10.4877
विषयी	-10.4881
▁न्यायालय	-10.4889
▁उठ	-10.4894
▁चंद्र	-10.4896
▁youth	-10.4897
▁van	-10.49
▁image	-10.4901
▁पार्क	-10.4903
▁association	-10.4903
▁विकसित	-10.4903
▁ऑनलाईन	-10.4903
▁Scott	-10.4903
▁नितीन	-10.4904
▁60	-10.4904
▁प्रत्यक्षात	-10.4904
American	-10.4906
▁Cal	-10.4906
▁Highway	-10.4908
oma	-10.4908
▁visited	-10.491
▁feet	-10.4913
▁secondary	-10.4913
▁देता	-10.4914
▁normal	-10.4918
▁CD	-10.4925
▁chart	-10.4926
्याने	-10.4927
Mo	-10.4928
▁trains	-10.4943
▁physical	-10.4944
▁गु	-10.4948
▁leg	-10.4948
▁Fu	-10.4948
▁नाम	-10.4953
▁किलोमीटर	-10.4954
▁राष्ट्रपती	-10.4955
▁सुरेश	-10.4955
▁1942	-10.4955
▁खात्री	-10.4955
▁घटनास्थळ	-10.4955
▁billion	-10.4958
▁बोट	-10.4959
▁probably	-10.496
▁turns	-10.4962
▁graduated	-10.4962
▁रस्त्या	-10.4963
▁परिषदेत	-10.4963
▁reason	-10.4965
▁संदेश	-10.4966
▁standing	-10.497
Ma	-10.4972
▁Book	-10.4981
▁formation	-10.4986
मेंट	-10.4988
द्र	-10.4989
ांतील	-10.499
काम	-10.4994
more	-10.5002
▁para	-10.5004
▁growing	-10.5004
▁governor	-10.5006
▁दुसर्या	-10.5006
▁promotion	-10.5006
▁sand	-10.5006
▁occurred	-10.5006
▁sense	-10.5007
22	-10.5016
▁चोर	-10.5017
▁provid	-10.5019
▁demand	-10.5033
ble	-10.5033
▁cookies	-10.5036
▁नव्याने	-10.5038
पत्र	-10.5038
▁guard	-10.5039
hr	-10.5041
▁Gold	-10.5046
▁waited	-10.5048
▁cap	-10.505
ken	-10.505
▁कार्यक्रमात	-10.5054
▁activity	-10.5058
▁1948	-10.5058
▁More	-10.5061
▁Christ	-10.5063
▁recognized	-10.5063
▁Scottish	-10.5064
▁Bal	-10.5066
▁लावले	-10.5066
bit	-10.5067
▁rich	-10.5067
▁makeup	-10.5071
qua	-10.5071
aga	-10.5075
ट्र	-10.5075
▁Life	-10.5078
▁प्रमाणावर	-10.5079
▁देते	-10.5084
vers	-10.5084
▁launch	-10.5085
▁cream	-10.5087
dia	-10.509
▁अनु	-10.5091
ंडी	-10.5097
▁पक्षाच्या	-10.5099
▁घेतल्या	-10.51
▁suit	-10.5101
▁म्हण	-10.5104
▁मंडळी	-10.5109
▁पर्यटन	-10.511
▁Corporation	-10.511
▁Federal	-10.511
▁Hospital	-10.511
▁शिफारस	-10.511
▁छत्रपती	-10.511
▁सभापती	-10.511
▁1944	-10.511
cus	-10.5111
जन	-10.5113
▁nominated	-10.5114
▁lay	-10.5115
net	-10.512
ock	-10.5126
▁माध्यम	-10.5129
्रे	-10.513
▁कस	-10.5132
स्व	-10.5141
▁पोलिसांच्या	-10.5146
▁Game	-10.5146
ros	-10.515
bra	-10.5151
▁२६	-10.5152
rm	-10.5153
▁रस	-10.5157
▁२७	-10.5162
▁इच्छित	-10.5162
▁racial	-10.5162
▁बहुतांश	-10.5162
▁joy	-10.5162
▁phase	-10.5162
▁minister	-10.5163
▁त्याचबरोबर	-10.5163
▁Centre	-10.5163
▁candidate	-10.5163
▁फुले	-10.5166
▁1983	-10.5167
▁code	-10.5168
▁Three	-10.5169
▁asks	-10.5174
▁स्पर्धे	-10.5176
);	-10.5176
▁Sal	-10.5177
▁टाळ	-10.5178
▁mixed	-10.5179
कू	-10.5181
▁चव	-10.5183
TMs	-10.5186
▁answer	-10.519
▁bill	-10.5193
ric	-10.5194
▁roles	-10.5196
▁भारताच्या	-10.5199
▁sport	-10.5203
▁जनते	-10.5205
▁Mor	-10.5213
▁fit	-10.5215
▁task	-10.5215
▁drove	-10.5215
▁Senate	-10.5216
ola	-10.5216
▁pink	-10.5218
▁Native	-10.5218
▁nuclear	-10.522
ांपर्यंत	-10.5223
▁जाण	-10.5225
▁Yu	-10.5225
▁Jean	-10.523
▁संकट	-10.5233
500	-10.5234
▁क्षण	-10.5235
▁Post	-10.5236
illa	-10.5237
▁pot	-10.5237
▁पालिकेच्या	-10.5238
san	-10.5245
ानी	-10.5246
mate	-10.5246
▁राबव	-10.525
rie	-10.5252
▁transfer	-10.5255
▁weak	-10.5255
ायची	-10.5261
ible	-10.5263
▁प्रवाशां	-10.5265
St	-10.5267
▁supply	-10.5268
▁संतोष	-10.5268
▁dangerous	-10.5268
▁1963	-10.5268
▁शांत	-10.5269
▁fellow	-10.5269
▁resulted	-10.527
known	-10.527
▁bag	-10.5271
▁acid	-10.5271
▁Beach	-10.5271
ाना	-10.5279
▁वाज	-10.528
▁इंग्रजी	-10.528
▁केल्याचे	-10.5281
▁ठरव	-10.5282
wing	-10.529
▁Vo	-10.5297
क्षेत्रातील	-10.5301
▁Maybe	-10.5302
▁Val	-10.5302
▁नर	-10.5306
ara	-10.5309
▁woods	-10.5313
▁count	-10.5315
▁घाल	-10.5319
▁fighting	-10.5321
▁wild	-10.5321
▁कदाचित	-10.5321
▁पंजाब	-10.5321
▁त्यामध्ये	-10.5321
▁संदीप	-10.5321
▁Francisco	-10.5322
▁object	-10.5323
▁disease	-10.5325
ेला	-10.5325
▁condition	-10.5325
▁seats	-10.5325
▁तालुका	-10.5328
▁लोकप्रिय	-10.5328
▁expanded	-10.5328
▁म्हणत	-10.5329
ियन	-10.533
▁तसंच	-10.5333
ned	-10.5337
▁Fox	-10.5338
▁determined	-10.5339
▁paint	-10.5339
▁List	-10.5339
▁उपस्थिती	-10.5342
▁२८	-10.5343
▁ending	-10.5343
▁Ed	-10.5344
▁headquarters	-10.5344
Be	-10.5346
▁Kong	-10.5346
्याची	-10.5351
▁connected	-10.5353
29	-10.5355
▁जगात	-10.5358
▁seek	-10.5365
▁rare	-10.5365
▁cell	-10.5371
▁projects	-10.5373
▁twice	-10.5374
▁कामकाज	-10.5374
▁ताण	-10.5374
▁basketball	-10.5374
▁अवघ्या	-10.5376
▁Duke	-10.5378
mal	-10.538
▁continues	-10.5381
रूप	-10.5383
▁platform	-10.5384
▁थ	-10.5384
▁आलेला	-10.5384
ायचा	-10.5385
ella	-10.5388
▁likes	-10.5389
▁Part	-10.5389
tte	-10.5395
▁जावे	-10.5395
▁घेण्याची	-10.5398
▁Ph	-10.5399
dar	-10.5403
ks	-10.5407
light	-10.5408
▁display	-10.5414
▁तांत्रिक	-10.5427
▁stadium	-10.5428
▁चाचणी	-10.5428
▁पुढाकार	-10.5428
▁पाऊल	-10.5428
▁except	-10.5429
▁assistant	-10.5429
▁temperature	-10.5433
▁शासनाने	-10.5434
▁captured	-10.5435
▁employed	-10.5439
▁मिळवून	-10.544
▁नवे	-10.5441
with	-10.5447
▁inspired	-10.5448
▁प्राणी	-10.5451
▁हिंदुस्थान	-10.5453
ata	-10.5454
▁brothers	-10.5458
▁येता	-10.5461
▁Top	-10.5467
▁वर्षां	-10.5468
▁माती	-10.5471
board	-10.5475
▁Wi	-10.5476
▁करु	-10.5479
▁library	-10.5482
▁सर्वसाधारण	-10.5482
▁तलाव	-10.5482
▁पाणीपुरवठा	-10.5483
▁हजर	-10.5483
▁1941	-10.5483
▁एअर	-10.5484
▁daddy	-10.5485
▁authority	-10.5485
▁पटेल	-10.5486
ालय	-10.549
▁भाषण	-10.549
▁step	-10.5491
▁सभागृहात	-10.5495
▁वाचा	-10.5501
▁highway	-10.5505
ोड	-10.5507
▁defined	-10.5508
▁मतदारसंघात	-10.551
▁transport	-10.551
▁जवान	-10.5517
एम	-10.5517
▁Inc	-10.5521
▁elections	-10.5521
▁Tor	-10.5522
▁मुला	-10.5525
▁पास	-10.5526
▁दिलीप	-10.5527
▁Mad	-10.5528
▁उत्साह	-10.5528
▁formerly	-10.5533
200	-10.5536
▁journey	-10.5537
▁राजीनामा	-10.5537
▁जाणीव	-10.5537
▁failure	-10.5537
▁Creek	-10.5537
▁1962	-10.5537
▁पैसा	-10.5537
▁simply	-10.5538
▁temple	-10.5543
▁shop	-10.5544
▁दाखवून	-10.5545
▁दाखव	-10.5552
▁Ten	-10.5558
▁दगड	-10.5566
mis	-10.5573
▁वाढली	-10.5575
▁fine	-10.5577
▁लाव	-10.5581
▁defend	-10.5582
▁देशाच्या	-10.5589
▁Sydney	-10.5591
▁economy	-10.5591
▁exchange	-10.5591
▁भोसले	-10.5591
▁strike	-10.5591
▁nothing	-10.5592
▁theatre	-10.5592
ight	-10.5594
▁Elizabeth	-10.5594
▁festival	-10.5598
▁fruit	-10.5599
▁passenger	-10.5599
▁बांध	-10.56
▁Pen	-10.5603
▁actually	-10.5603
कट	-10.5603
▁विकत	-10.5603
व्ही	-10.5605
▁Open	-10.5612
टक	-10.5614
▁देशा	-10.5615
▁अंक	-10.5616
ाचें	-10.5617
▁Ash	-10.5626
▁यातून	-10.5633
▁Earl	-10.5637
▁नेमक	-10.5638
▁/	-10.5639
ctor	-10.5644
▁opposition	-10.5646
▁निधन	-10.5647
▁1947	-10.5647
tru	-10.5648
▁थंड	-10.565
ुल	-10.565
▁Fr	-10.5654
▁guest	-10.5655
▁ठेवला	-10.5656
▁Master	-10.5662
▁marked	-10.5663
▁हळू	-10.5666
▁मतदारसंघ	-10.5667
▁younger	-10.5671
▁Series	-10.5676
ston	-10.5676
▁तिची	-10.5676
▁Victoria	-10.5677
▁विश्व	-10.5683
▁cave	-10.5683
ांचं	-10.5688
▁रूप	-10.5689
▁escape	-10.569
▁तिचे	-10.5691
▁clubs	-10.5697
kar	-10.5697
ls	-10.5698
ंप	-10.5699
lar	-10.5701
८	-10.5701
▁Conference	-10.5701
▁amazing	-10.5701
▁ocean	-10.5701
▁programming	-10.5701
▁royal	-10.5701
▁विज्ञान	-10.5702
▁leadership	-10.5702
ल्स	-10.5703
▁chance	-10.5703
▁करायचे	-10.5704
▁याशिवाय	-10.5704
▁Team	-10.5704
▁नवा	-10.5704
▁nest	-10.5705
▁achieved	-10.5709
िनी	-10.5709
करिता	-10.5709
▁assigned	-10.5711
पुढे	-10.5711
▁संस्थे	-10.5714
▁Rome	-10.5717
▁महत्व	-10.5717
pon	-10.5719
▁partner	-10.5721
je	-10.5721
▁urban	-10.5725
▁मधील	-10.5727
vent	-10.5728
▁climbed	-10.5733
▁समाधान	-10.5733
दान	-10.5734
▁ch	-10.5734
▁पे	-10.5735
▁मीडियावर	-10.5741
▁सहन	-10.5741
▁कार्यकर्त्यां	-10.5742
▁३५	-10.5743
32	-10.5746
बाई	-10.5748
▁जाण्या	-10.5756
▁tunnel	-10.5757
▁तरतूद	-10.5757
▁बातमी	-10.5757
▁चित्रपटात	-10.5759
▁save	-10.576
▁निमित्ताने	-10.5761
law	-10.5762
▁Poland	-10.5762
▁करेल	-10.5762
▁Arm	-10.5764
▁परंपरा	-10.5765
▁adult	-10.5768
वादी	-10.5772
▁काढला	-10.5773
▁plays	-10.5774
ane	-10.5779
▁wood	-10.5788
▁33	-10.579
▁एल	-10.5791
▁चर्चेत	-10.5792
▁उर	-10.5794
ei	-10.5798
िली	-10.5807
▁Ju	-10.5809
▁votes	-10.5811
▁ढ	-10.5811
ological	-10.5811
▁functions	-10.5812
▁buried	-10.5813
▁silver	-10.5813
▁आदर्श	-10.5813
▁Township	-10.5814
▁Mill	-10.5814
शास्त्र	-10.5815
▁दीपक	-10.5816
▁sell	-10.5817
▁Even	-10.5819
▁शिवसेनेचे	-10.5821
▁साधला	-10.5822
▁succeeded	-10.5825
eo	-10.583
▁अल	-10.583
dale	-10.5832
▁ranked	-10.5835
ति	-10.5838
stone	-10.5841
▁लाखो	-10.5849
▁टाकण्या	-10.5849
▁कोर	-10.5851
▁अॅप	-10.5854
▁limit	-10.5857
▁reduce	-10.5857
▁स्थापना	-10.5858
▁subsequent	-10.5859
Oh	-10.586
▁Boy	-10.5861
▁Bell	-10.5863
▁critical	-10.5863
▁एकमेकां	-10.5865
▁मुदत	-10.5866
▁Network	-10.5869
▁administrative	-10.5869
▁elephant	-10.5869
▁threw	-10.5869
▁treasure	-10.5869
▁Among	-10.587
▁Power	-10.587
▁shape	-10.587
▁घ्यावी	-10.587
▁maintain	-10.5872
▁स्वच्छता	-10.5874
▁nation	-10.5874
▁knowledge	-10.5875
▁लावली	-10.5876
▁ca	-10.5877
▁confirmed	-10.5877
▁Rose	-10.588
४	-10.5881
▁Olympic	-10.5882
▁sources	-10.5883
▁pushed	-10.5885
46	-10.5894
▁environment	-10.5894
▁quality	-10.5895
▁letters	-10.5897
▁origin	-10.5898
▁hosted	-10.5908
ाबद्दल	-10.5912
▁finding	-10.5912
▁दिवसात	-10.5916
rk	-10.5917
▁couple	-10.592
▁Cha	-10.5922
▁principal	-10.5925
▁digital	-10.5926
▁sexual	-10.5926
▁1958	-10.5926
▁पालकमंत्री	-10.5926
▁calling	-10.5927
▁अधिकृत	-10.5927
▁Maria	-10.5929
▁विद्युत	-10.593
▁sequence	-10.5931
▁setting	-10.5933
ose	-10.5935
▁वेगळे	-10.5936
▁अव	-10.5937
▁price	-10.5939
▁लॉ	-10.5941
▁Out	-10.5942
▁महापालिकेने	-10.5943
▁trial	-10.5944
▁granted	-10.5945
▁सुधार	-10.5945
▁आस	-10.5946
90	-10.5951
▁faster	-10.5952
▁मांड	-10.5952
39	-10.5953
▁लोकांनी	-10.5957
▁remember	-10.5958
▁यू	-10.5959
▁hoped	-10.5959
ole	-10.596
ral	-10.5968
पूर्वी	-10.5971
▁प्रगती	-10.5974
ama	-10.5982
▁तिकीट	-10.5982
▁वगैरे	-10.5982
▁Jersey	-10.5982
▁captain	-10.5983
▁सुभाष	-10.5983
▁वाईट	-10.5983
▁पहाटे	-10.5983
▁प्रमाणपत्र	-10.5983
▁वाळू	-10.5984
ress	-10.5984
▁Like	-10.5987
▁सलग	-10.5987
▁add	-10.5989
▁exist	-10.5994
▁Hong	-10.5998
▁पाण्याचा	-10.6001
▁बु	-10.6004
▁lies	-10.6005
▁stock	-10.6008
▁खाते	-10.601
▁दुख	-10.601
▁versions	-10.6016
▁पाठव	-10.6019
▁मूर्ती	-10.602
▁इमारत	-10.6024
▁script	-10.6024
▁राहत	-10.6026
wick	-10.6026
रण	-10.6027
ory	-10.6028
▁भरून	-10.603
▁screen	-10.6034
45	-10.6038
▁हृदय	-10.6039
He	-10.6039
▁मुस्लिम	-10.6039
▁1954	-10.604
णाया	-10.6041
▁Castle	-10.6041
▁पगार	-10.6041
▁pen	-10.6043
▁कशा	-10.6043
▁Atlantic	-10.6044
▁आधारित	-10.6045
▁करपा	-10.6046
▁participated	-10.6048
▁महिले	-10.605
▁Polish	-10.605
▁security	-10.605
▁Due	-10.6052
▁princess	-10.6052
▁महत्वाचे	-10.6054
विले	-10.6054
सन	-10.6055
▁rail	-10.6063
▁purpose	-10.6071
▁bike	-10.6072
▁हिंदी	-10.6073
▁holds	-10.6076
गु	-10.6076
▁magic	-10.6076
ेर	-10.6076
ाप	-10.6077
▁अभिनेता	-10.6077
37	-10.6078
ena	-10.6085
ons	-10.6086
▁वेतन	-10.6087
ability	-10.6088
▁Cre	-10.6089
ारी	-10.609
सो	-10.6091
▁Santa	-10.6093
ण्याच्या	-10.6095
▁listened	-10.6095
▁accident	-10.6096
ंध	-10.6097
▁facility	-10.6097
▁crown	-10.6097
▁आड	-10.6097
▁swim	-10.6097
▁उपयुक्त	-10.6098
▁1949	-10.6098
▁unknown	-10.6099
▁powerful	-10.61
▁derived	-10.6101
ians	-10.6102
▁शाळे	-10.6102
▁ट्रक	-10.6102
▁Columbia	-10.6102
▁briefly	-10.6105
▁केल्याची	-10.6109
▁निर्	-10.6114
▁पाण्याची	-10.6118
▁यातील	-10.6122
ye	-10.6123
▁गाड्या	-10.6125
▁Georgia	-10.6125
ायचं	-10.6127
ल्ड	-10.6127
▁आमचे	-10.6127
▁झाल्यावर	-10.6135
▁बाबा	-10.6137
aw	-10.614
ax	-10.6143
▁Bra	-10.6144
but	-10.6145
▁हॉस्पिटल	-10.6146
ॅट	-10.6146
▁Mama	-10.6146
▁अम	-10.6149
▁quarter	-10.615
▁तशी	-10.6151
▁कोंडी	-10.6153
▁applied	-10.6155
▁literature	-10.6155
▁भ्रष्टाचार	-10.6155
▁bite	-10.6155
▁check	-10.6155
▁software	-10.6155
ूल	-10.6157
▁गुंतवणूक	-10.6158
▁clothes	-10.6158
▁chairman	-10.6159
▁छ	-10.6159
▁settled	-10.6159
76	-10.616
38	-10.6161
▁laws	-10.6161
▁leaders	-10.6163
▁combined	-10.6163
▁पाहा	-10.6164
वाल	-10.6169
▁pilot	-10.6172
▁मिल	-10.6172
▁Sports	-10.6172
▁throw	-10.6176
▁episodes	-10.6177
rat	-10.6178
▁संघात	-10.6182
▁extend	-10.6188
▁प्रसंग	-10.6192
▁existing	-10.6194
▁मुर	-10.6199
▁फेरीत	-10.6203
bor	-10.6204
▁नस	-10.6207
oon	-10.6208
lly	-10.621
▁extreme	-10.6213
▁maximum	-10.6213
▁squirrel	-10.6213
▁Through	-10.6213
▁politics	-10.6213
▁steam	-10.6213
▁दबाव	-10.6213
▁सेट	-10.6214
▁attend	-10.6215
▁pretend	-10.6216
▁मागण्या	-10.6217
▁conference	-10.6218
▁शंका	-10.6219
▁Ki	-10.6224
▁increasing	-10.6226
▁आमची	-10.6227
ींग	-10.6231
▁जरी	-10.6231
▁article	-10.6232
ute	-10.6232
्ती	-10.6233
▁flow	-10.6233
set	-10.6236
rin	-10.6241
ल्ल	-10.6242
ette	-10.6246
तल्या	-10.6246
▁घालण्या	-10.6246
▁link	-10.6247
vel	-10.625
▁न्यायालया	-10.6251
▁5,	-10.6252
▁मुलां	-10.6252
▁union	-10.6253
▁भि	-10.6257
▁सोन्या	-10.626
फा	-10.626
▁Mus	-10.626
▁extensive	-10.6261
▁phone	-10.6261
ld	-10.6262
▁historic	-10.6264
ंदा	-10.6266
गावातील	-10.627
▁grandma	-10.6271
▁broad	-10.6271
▁आक्रमक	-10.6271
▁बेळगाव	-10.6271
▁कार्यकारी	-10.6272
▁वडील	-10.6273
▁enjoy	-10.6275
▁क्लब	-10.6278
▁समितीने	-10.6278
▁aid	-10.628
▁देसाई	-10.6282
▁सण	-10.6283
▁नियमित	-10.6284
▁विसर	-10.6285
cul	-10.6288
सातत्याने	-10.6289
▁householder	-10.6292
New	-10.6294
But	-10.6296
▁shore	-10.6299
▁वर्षा	-10.63
gra	-10.6311
star	-10.6316
▁Corps	-10.632
▁7,	-10.632
ea	-10.6322
99	-10.6323
▁दिवसांपूर्वी	-10.6324
▁Hol	-10.6324
▁unusual	-10.6326
▁alternative	-10.633
▁प्राधान्य	-10.633
▁उपाध्यक्ष	-10.633
▁baseball	-10.6331
▁1946	-10.6331
▁धर	-10.6333
▁approved	-10.6336
ाखाली	-10.6338
▁सार	-10.6339
▁founder	-10.634
▁ग्राहकांना	-10.634
▁पद्धत	-10.634
▁होण्या	-10.6341
▁oldest	-10.6341
▁इतकी	-10.6345
▁राष्ट्रवादीचे	-10.6346
ration	-10.6347
▁Prior	-10.6348
xi	-10.6351
▁Free	-10.6352
36	-10.6353
▁heat	-10.6353
nie	-10.6353
▁70	-10.6355
▁height	-10.6356
▁mess	-10.6356
▁eye	-10.6358
-1	-10.636
▁ठ	-10.6364
▁साकार	-10.6366
▁अन्	-10.6367
हार	-10.6369
▁इस	-10.6369
▁घरा	-10.6374
▁tight	-10.638
▁Carl	-10.6389
▁neighbor	-10.6389
▁Stadium	-10.6389
▁committee	-10.6389
▁आभार	-10.6389
▁fought	-10.6389
▁Police	-10.639
▁fur	-10.6391
▁establishment	-10.6392
▁संकल्पना	-10.6392
धारक	-10.6393
सारखा	-10.6397
▁इतका	-10.6397
▁2006.	-10.6399
▁performances	-10.6401
cu	-10.6408
▁काळे	-10.6408
▁map	-10.6409
med	-10.641
var	-10.6413
▁डो	-10.6413
▁पूल	-10.6415
ल्यास	-10.6423
▁strange	-10.6428
▁आख	-10.6429
▁राग	-10.6439
▁मोह	-10.6442
▁विदर्भ	-10.6444
करी	-10.6445
▁Philadelphia	-10.6449
▁expansion	-10.6449
▁stood	-10.6449
▁विधेयक	-10.6449
▁रशिया	-10.6449
▁neighborhood	-10.6449
▁संताप	-10.6449
पूर्वक	-10.645
▁Good	-10.6454
▁quite	-10.6454
सारखी	-10.6457
▁त्यापैकी	-10.6458
युक्त	-10.6458
▁व्ही	-10.6459
▁स्वरूपात	-10.6459
▁गणपती	-10.646
▁Tra	-10.646
पो	-10.6463
century	-10.6467
▁आसात	-10.6469
▁पुला	-10.6469
▁नाट्य	-10.6472
▁नक्कीच	-10.6473
▁पाव	-10.6474
70	-10.6475
▁wish	-10.6479
▁भाजपा	-10.6481
▁hop	-10.6483
द्	-10.6486
ave	-10.6486
ura	-10.6489
▁critics	-10.6491
▁सुर	-10.6492
▁मुख्यमंत्र्यां	-10.6499
▁साय	-10.65
▁effective	-10.65
प्रकरणी	-10.6501
ient	-10.6507
▁contemporary	-10.6509
▁creating	-10.6509
▁necessary	-10.6509
▁वाक्य	-10.6509
▁फूट	-10.6509
▁merged	-10.6511
▁comedy	-10.6512
▁पातळी	-10.6512
▁Illinois	-10.6513
▁स्थायी	-10.6514
▁हिंदु	-10.6516
▁frequently	-10.6518
▁pop	-10.652
ंडा	-10.6524
▁counter	-10.6525
▁Inter	-10.6526
▁वार	-10.6528
47	-10.6532
▁audience	-10.6532
▁pair	-10.6534
▁Area	-10.6535
▁Br	-10.654
▁Han	-10.6541
▁needs	-10.6544
▁returning	-10.6544
▁याच्या	-10.6546
ेक	-10.6557
▁लढ	-10.6557
▁News	-10.656
▁पान	-10.6561
▁Mel	-10.6564
▁सन्मान	-10.6566
▁models	-10.6567
▁Province	-10.6569
▁memory	-10.6569
▁प्लास्टिक	-10.6569
▁giant	-10.6569
▁मोहीम	-10.6569
▁तणाव	-10.6569
▁नोटीस	-10.657
▁सुट्टी	-10.657
▁hungry	-10.657
▁Sunday	-10.657
▁1938	-10.657
▁About	-10.657
▁उभा	-10.6573
▁Emperor	-10.6574
▁विभागीय	-10.6575
▁चुक	-10.6579
las	-10.658
▁फेरी	-10.6582
▁दिलासा	-10.6582
▁converted	-10.6584
▁candy	-10.6586
▁fully	-10.6586
▁poet	-10.659
ोल	-10.6592
▁organ	-10.6592
▁card	-10.6593
▁बोर्ड	-10.6593
ants	-10.6594
▁patient	-10.6594
▁वाड	-10.6596
▁foundation	-10.6596
▁winner	-10.6597
▁zone	-10.6598
▁यांच्यात	-10.6601
भाव	-10.6602
▁fixed	-10.6607
ोली	-10.6611
▁दुचाकी	-10.6615
▁Far	-10.662
tle	-10.6622
▁चढ	-10.6627
▁90	-10.6628
्याचे	-10.6629
▁situated	-10.663
▁Stephen	-10.663
▁colorful	-10.663
▁dragon	-10.6631
▁मटा	-10.6633
▁हवाई	-10.6633
▁Chris	-10.6634
pen	-10.6634
▁choose	-10.6636
cin	-10.6637
▁सांगून	-10.6644
ाद	-10.6646
▁classes	-10.6646
▁vehicles	-10.6646
▁cycle	-10.6655
मार्फत	-10.6655
▁address	-10.666
▁स्वामी	-10.666
एल	-10.6669
och	-10.6672
bin	-10.6674
▁farmer	-10.6674
▁titles	-10.6675
▁prince	-10.6677
▁online	-10.6682
▁करणारी	-10.6685
▁Ber	-10.6686
▁वाहने	-10.6686
▁commander	-10.6688
▁Guard	-10.6689
▁photo	-10.669
▁Census	-10.6691
▁Ontario	-10.6691
▁poverty	-10.6691
▁Arthur	-10.6691
▁Secretary	-10.6691
▁losing	-10.6691
▁पसर	-10.6691
▁आदित्य	-10.6691
▁अरुण	-10.6692
▁डोळे	-10.6693
▁sort	-10.6696
▁Between	-10.6697
▁पुरव	-10.6704
▁Berlin	-10.6711
▁frame	-10.6715
lie	-10.6722
▁लक्ष्य	-10.6724
▁Shi	-10.6725
▁decades	-10.6739
▁राहिला	-10.6739
▁offers	-10.6745
▁खात्या	-10.6746
▁ways	-10.675
▁Field	-10.6752
▁roof	-10.6752
▁उपाययोजना	-10.6752
▁Justice	-10.6752
▁Time	-10.6754
▁iron	-10.6755
▁Johnny	-10.6756
";	-10.6757
▁बरोबर	-10.6757
▁पावसाने	-10.676
▁contain	-10.676
oid	-10.6762
▁होण्यासाठी	-10.6762
▁theater	-10.6764
▁fan	-10.6764
▁ha	-10.6765
▁bench	-10.6765
▁सरकारकडून	-10.6765
My	-10.6768
bl	-10.6768
▁methods	-10.6769
गार	-10.677
ंमुळे	-10.6772
▁विषयावर	-10.6776
▁pool	-10.6776
▁बरेच	-10.6776
▁स्टार	-10.6777
kov	-10.6777
▁Islands	-10.678
▁designated	-10.6782
▁fans	-10.6785
▁डोंगर	-10.6787
वीर	-10.6788
▁Stone	-10.6789
ale	-10.6789
rn	-10.6794
देश	-10.6794
ene	-10.6796
झर	-10.6797
▁Ann	-10.6798
▁Mer	-10.6798
▁couples	-10.6799
▁पकड	-10.6809
▁cup	-10.681
▁mayor	-10.6812
▁swimming	-10.6814
▁वंचित	-10.6814
▁धक्कादायक	-10.6814
▁बंगाल	-10.6814
▁मशीन	-10.6814
▁orange	-10.6814
▁उड	-10.6814
▁authorities	-10.6815
▁Andrew	-10.6816
▁देतात	-10.6816
▁संध्याकाळी	-10.6818
ऱया	-10.6819
▁कोणतेही	-10.6821
▁Summer	-10.6825
सम	-10.6825
yard	-10.6828
▁किमी	-10.6829
▁glass	-10.6832
▁फॉर्म	-10.6835
▁Camp	-10.6841
ue	-10.6843
▁पाण्यात	-10.6844
▁लोकांच्या	-10.6853
▁covers	-10.6858
▁महेश	-10.6859
cat	-10.6864
▁गुरु	-10.6868
▁जोर	-10.687
▁शा	-10.6875
shire	-10.6875
▁Special	-10.6876
▁खळबळ	-10.6876
▁रत्नागिरी	-10.6876
▁choice	-10.6876
▁दुसरे	-10.6876
▁कुलकर्णी	-10.6876
▁monkey	-10.6876
▁Christmas	-10.6876
▁Foundation	-10.6877
▁राजेंद्र	-10.6877
▁ऑ	-10.6879
▁उत्पादक	-10.6881
▁sang	-10.6881
▁pull	-10.6883
▁reviews	-10.6885
▁soil	-10.6885
bert	-10.6886
▁walls	-10.6895
mor	-10.6897
bro	-10.6898
▁असावी	-10.69
▁भारताने	-10.6902
▁Bel	-10.6902
mes	-10.6902
▁Mum	-10.6904
मय	-10.6905
▁huge	-10.6906
▁फलंदाज	-10.6907
▁statue	-10.6907
87	-10.6908
▁ताप	-10.691
az	-10.6913
4%	-10.6914
▁मैदान	-10.6914
fo	-10.6916
▁पंच	-10.6917
संबंधी	-10.6921
▁Ter	-10.6923
▁reserve	-10.6926
▁प्रभाग	-10.6928
▁प्रसार	-10.693
▁माने	-10.6934
▁पेट्रोल	-10.6938
▁valley	-10.6938
▁global	-10.6938
▁Bureau	-10.6938
▁contrast	-10.6939
▁1959	-10.6939
▁birthday	-10.6939
▁धोनी	-10.6939
▁Emma	-10.6939
▁opposed	-10.6941
▁chain	-10.6942
▁observed	-10.6942
डो	-10.6943
▁मिळ	-10.6946
▁सीमा	-10.6946
▁सैनिक	-10.6948
▁म्हणाला	-10.6952
oli	-10.6955
▁फा	-10.6957
▁500	-10.6958
▁emb	-10.6961
▁caus	-10.6964
ॉन	-10.6966
yan	-10.6968
▁Ban	-10.6969
▁mis	-10.6972
▁volume	-10.6978
▁Pol	-10.6978
शील	-10.698
its	-10.6981
▁officials	-10.6982
पूर्व	-10.6985
▁शिवसेनेच्या	-10.6988
stra	-10.699
▁sa	-10.699
▁quiet	-10.6991
▁व्यायाम	-10.6994
gon	-10.6995
▁दुसरी	-10.6999
▁छान	-10.7
▁behavior	-10.7001
▁invasion	-10.7001
▁शालेय	-10.7001
▁analysis	-10.7001
▁journalist	-10.7002
▁गोळा	-10.7002
▁छोट्या	-10.7002
▁दिशेने	-10.7004
▁stepped	-10.7006
▁काढ	-10.701
▁Captain	-10.7012
▁combat	-10.7014
▁कुणा	-10.7017
ाट	-10.7019
▁गरम	-10.7021
▁successfully	-10.7027
85	-10.7028
तु	-10.7033
▁effort	-10.7035
lli	-10.7037
▁पाक	-10.7042
▁mention	-10.7043
down	-10.7052
▁यांच्याशी	-10.7053
ob	-10.7057
▁टाकले	-10.7057
▁organizations	-10.7058
▁विजयी	-10.706
▁Together	-10.7064
▁अत्याचार	-10.7064
▁धार्मिक	-10.7064
▁पिढी	-10.7064
▁वकील	-10.7065
▁Davis	-10.7065
▁लोकशाही	-10.7065
▁बारा	-10.7067
▁Tony	-10.7067
▁Jill	-10.7069
Al	-10.7069
ंस	-10.707
▁skin	-10.707
Ho	-10.707
▁अशें	-10.7071
▁Korean	-10.7073
▁bigger	-10.7078
▁contributed	-10.7079
▁कंपन्या	-10.708
▁Stra	-10.7081
rus	-10.7088
्यांनी	-10.7089
▁li	-10.709
▁Angel	-10.7092
▁flat	-10.7094
▁occur	-10.7098
▁Mountain	-10.7099
र्थ	-10.7101
▁खून	-10.7101
ique	-10.7105
झा	-10.7105
▁rear	-10.7112
▁internal	-10.7112
▁entitl	-10.7117
▁resources	-10.7119
ably	-10.7121
▁chose	-10.7122
▁उद्योजक	-10.7122
▁वाहतुकी	-10.7122
▁Will	-10.7123
eck	-10.7124
▁Mal	-10.7125
▁roll	-10.7126
▁प्रशांत	-10.7128
▁rural	-10.7128
▁Point	-10.7128
▁copies	-10.7128
▁Miss	-10.7129
▁sentence	-10.713
▁वै	-10.7131
▁sick	-10.7131
▁करतील	-10.7131
▁powers	-10.7132
▁तसा	-10.7137
RA	-10.7139
▁स्क	-10.714
▁Swiss	-10.7144
wan	-10.7144
▁reading	-10.7147
▁occupied	-10.7148
▁काँग्रेसने	-10.7148
▁लावला	-10.715
▁विद्या	-10.7153
▁घाट	-10.7159
▁मुलांच्या	-10.7162
▁compete	-10.7163
oo	-10.7166
▁reports	-10.7167
▁Media	-10.7169
वड	-10.717
bal	-10.7175
▁गाठ	-10.7177
▁मेळ	-10.7181
▁plane	-10.7183
win	-10.7184
▁thinks	-10.7186
▁acting	-10.7187
pri	-10.7188
▁improve	-10.7188
▁peak	-10.719
▁treat	-10.7191
▁Swedish	-10.7192
▁Toronto	-10.7192
▁entrance	-10.7192
▁विद्यमान	-10.7192
▁heavily	-10.7192
▁genus	-10.7192
▁Health	-10.7193
हे	-10.7195
Okay	-10.7195
▁अधिकाऱ्यांनी	-10.7195
▁safety	-10.7197
रित्या	-10.7198
▁६०	-10.7199
▁दिग्दर्शक	-10.7199
ऊन	-10.7203
▁yard	-10.7204
▁आम	-10.7204
▁कडक	-10.7208
▁केल्याचा	-10.721
Ra	-10.721
▁टीव्ही	-10.7211
▁allows	-10.7211
▁joint	-10.7212
▁completely	-10.7212
▁towns	-10.7213
▁गॅस	-10.7213
▁परिषदे	-10.7216
▁गोलंदाज	-10.7217
%	-10.7217
-2	-10.7219
▁कॉल	-10.7219
point	-10.722
▁o	-10.7221
▁lo	-10.7221
pre	-10.7221
▁सिटी	-10.7223
▁drink	-10.7227
▁weapons	-10.7227
▁Main	-10.7228
▁fields	-10.723
▁रुग्णालय	-10.7233
▁dream	-10.7247
▁citizens	-10.725
▁formal	-10.7252
▁सैन्य	-10.7252
ome	-10.7254
▁Brazil	-10.7254
▁असूनही	-10.7255
च्छ	-10.7256
▁Massachusetts	-10.7257
▁पदाधिकारी	-10.7257
▁२०१४	-10.7257
▁incident	-10.7257
▁उदाहरणार्थ	-10.7257
▁Community	-10.7257
▁1961	-10.7257
▁करायची	-10.7258
3%	-10.7259
▁scientific	-10.7261
▁suddenly	-10.7262
▁तज्ज्ञ	-10.7266
▁competed	-10.7268
▁net	-10.727
▁ग्रंथ	-10.7271
ball	-10.7271
▁magical	-10.728
▁10,	-10.7281
lis	-10.7282
▁सुख	-10.7283
▁नेत्यां	-10.7286
▁disc	-10.7294
▁programme	-10.7295
▁डेटा	-10.7296
▁देतो	-10.7298
▁वाटा	-10.7299
▁साधारण	-10.73
▁सूर्य	-10.73
000	-10.7301
▁गोवा	-10.7303
▁अभियान	-10.7304
75	-10.7306
▁threat	-10.7309
▁permanent	-10.7312
▁Kan	-10.7313
▁झाल्याची	-10.7313
elli	-10.7314
▁strip	-10.7316
▁centuries	-10.7322
▁speech	-10.7322
▁फसवणूक	-10.7322
▁२०१८	-10.7322
▁1943	-10.7322
▁नसते	-10.7324
▁चक्क	-10.7324
▁ultimately	-10.7324
1,	-10.7325
▁protection	-10.7328
▁गती	-10.7328
▁वितरण	-10.7331
▁बीड	-10.7332
▁करणं	-10.7333
कून	-10.7333
▁fiction	-10.7334
▁वाचन	-10.7334
▁महान	-10.7335
31	-10.7337
▁हाय	-10.7338
▁विधानसभे	-10.7338
▁sons	-10.7343
▁लाग	-10.7344
▁दत्त	-10.7346
बल	-10.7347
▁yards	-10.7351
▁Nu	-10.7354
▁sixth	-10.7357
▁Sta	-10.7358
▁राजू	-10.7361
▁request	-10.7363
वट	-10.7369
▁Muslim	-10.7371
cer	-10.7371
▁कंपनीने	-10.7372
▁peace	-10.7379
▁रो	-10.7381
▁बद्दल	-10.7383
ूट	-10.7384
▁Four	-10.7386
▁परिवहन	-10.7387
▁वृत्तसंस्था	-10.7387
▁1956	-10.7388
िज	-10.7388
▁प्रतिमा	-10.7391
▁थोडे	-10.7392
घर	-10.7392
▁begins	-10.7397
▁मिळालेल्या	-10.7398
▁sounds	-10.7401
ith	-10.7401
▁भेटी	-10.7403
83	-10.7403
वारी	-10.7403
▁seemed	-10.7404
nan	-10.7411
▁लागतात	-10.7411
invited	-10.7414
▁Ali	-10.7415
▁Arab	-10.7416
्रो	-10.7417
▁discover	-10.7418
▁sites	-10.7419
▁सर्वांना	-10.7423
▁शिकव	-10.7425
▁log	-10.7429
▁जणां	-10.743
▁Is	-10.7432
▁धा	-10.7432
▁Sh	-10.7437
ple	-10.7438
▁publication	-10.7442
▁trans	-10.7442
▁व्यापारी	-10.7442
▁वाग	-10.7445
ंगा	-10.7448
▁अति	-10.7449
▁वेध	-10.7449
▁देवी	-10.745
▁grateful	-10.7453
▁pocket	-10.7453
▁straight	-10.7453
▁चौधरी	-10.7453
▁व्हिडीओ	-10.7453
उर्वरित	-10.7453
▁सर्वोत्तम	-10.7453
▁बचाव	-10.7453
▁1939	-10.7454
▁सज्ज	-10.7454
▁व्हावे	-10.7458
▁कपूर	-10.7458
▁notes	-10.7459
▁tries	-10.746
▁factory	-10.7461
ेचा	-10.7461
▁80	-10.7462
▁wasn	-10.7463
िटी	-10.7464
SA	-10.7468
▁पूजा	-10.7469
▁improved	-10.7469
▁Night	-10.747
hood	-10.7475
▁Albert	-10.7478
त्री	-10.7481
ीसाठी	-10.7483
▁42	-10.7484
▁consider	-10.7485
ona	-10.7495
▁पाठ	-10.7495
तिहासिक	-10.7497
संख्य	-10.7498
▁देण्यास	-10.7499
▁basic	-10.7499
▁nose	-10.7499
▁promise	-10.7507
्रा	-10.751
Ba	-10.751
वल	-10.7511
▁etc	-10.7513
िय	-10.7513
▁Pla	-10.7517
▁Bishop	-10.7519
▁franchise	-10.7519
▁कांबळे	-10.7519
▁सांस्कृतिक	-10.7519
▁अक्षय	-10.7519
▁puppy	-10.7519
▁शेट्टी	-10.7519
▁racing	-10.7519
▁retirement	-10.752
▁जेथे	-10.7521
▁slightly	-10.7521
stein	-10.7524
▁मदतीने	-10.7525
part	-10.7525
▁dirty	-10.7526
▁राजस्थान	-10.7532
▁branches	-10.7532
▁पेपर	-10.7532
▁लक्ष्मी	-10.7536
▁मिळून	-10.7536
▁अगोदर	-10.754
▁Wal	-10.7542
▁वेळेत	-10.7544
▁घेतलेल्या	-10.7544
5,000	-10.7545
▁Bro	-10.7547
▁दोघांना	-10.7548
▁destroy	-10.755
▁electronic	-10.7554
▁प्रकारची	-10.7555
्याला	-10.7558
hal	-10.7559
खाली	-10.7563
▁accept	-10.7564
▁सागर	-10.7568
▁starred	-10.7568
▁प्रक्रिये	-10.7572
दास	-10.7575
2%	-10.7579
▁खत	-10.7579
▁दाब	-10.7579
▁सभेत	-10.758
▁गौरव	-10.7583
▁स्मार्ट	-10.7586
▁amazed	-10.7586
▁beyond	-10.7586
▁अतिक्रमण	-10.7586
▁भुजबळ	-10.7586
▁properties	-10.7586
▁उडाली	-10.7586
▁Daniel	-10.7586
▁1952	-10.7587
▁stuck	-10.7587
▁sitting	-10.7588
BC	-10.7588
▁decide	-10.7588
▁1987	-10.7589
▁Hotel	-10.7589
िले	-10.7589
▁वनस्पती	-10.759
▁Steve	-10.7591
also	-10.7592
धार	-10.7594
tive	-10.7594
▁व्यापार	-10.7597
ाद्वारे	-10.7597
▁संशय	-10.76
▁Jan	-10.7601
▁फेक	-10.7602
ंशी	-10.7604
▁expressed	-10.7604
▁हीच	-10.7608
41	-10.7609
af	-10.761
▁contained	-10.7613
mu	-10.7616
▁माहित	-10.7616
त्य	-10.7618
▁MP	-10.7619
▁commissioned	-10.7621
▁कुर	-10.7622
▁नावाने	-10.7622
▁6,	-10.7623
▁Fame	-10.7625
▁smiles	-10.7625
▁बांधण्या	-10.7627
▁उदाहरण	-10.7635
▁व्ह	-10.7637
▁equal	-10.7641
्यांना	-10.7645
्यांची	-10.7647
right	-10.7648
▁)	-10.765
▁फोड	-10.7651
▁agent	-10.7651
▁motor	-10.7652
▁advantage	-10.7653
▁गुणवत्ता	-10.7653
▁रेकॉर्ड	-10.7653
▁sharp	-10.7653
▁silly	-10.7653
▁रमेश	-10.7653
▁महाजन	-10.7654
▁fox	-10.7654
▁यंत्रणे	-10.7655
▁8,	-10.7657
itt	-10.7658
▁loan	-10.7659
▁हेक्टर	-10.766
▁mode	-10.7661
▁Women	-10.7662
▁ethnic	-10.7664
▁अमेरिके	-10.7665
▁दिल्लीत	-10.7665
eg	-10.7669
▁मर्यादा	-10.7669
lands	-10.7672
▁Marine	-10.7677
par	-10.768
non	-10.7682
▁2007.	-10.7685
टो	-10.769
▁मह	-10.769
छ	-10.7695
▁तुला	-10.7697
कड	-10.7697
▁ठरत	-10.77
▁string	-10.77
▁मिळाल्या	-10.7701
▁hope	-10.7701
▁Ze	-10.7701
▁स्तरावर	-10.7702
▁Ol	-10.7702
▁मोठय	-10.7704
्ता	-10.7705
▁Olympics	-10.7705
56	-10.7711
▁Kim	-10.7713
▁tank	-10.7715
▁Gal	-10.7717
▁शाखा	-10.7719
▁गोड	-10.7719
▁architect	-10.772
▁exploring	-10.772
▁समाविष्ट	-10.772
▁सौंदर्य	-10.772
▁gentle	-10.7721
म्ब	-10.7721
▁w	-10.7725
▁रुपया	-10.7725
pin	-10.7726
ुम	-10.7735
▁Fo	-10.7736
86	-10.7738
▁Wil	-10.774
▁Dar	-10.7742
▁घेतात	-10.7743
▁Reg	-10.7744
nic	-10.7744
▁यासंदर्भात	-10.7745
▁districts	-10.7746
dor	-10.7748
emp	-10.7755
िव्ह	-10.7757
▁attacks	-10.7757
▁समर्थन	-10.776
▁le	-10.7761
▁२९	-10.7762
▁cards	-10.7763
AA	-10.7763
लाल	-10.7765
▁strength	-10.7765
▁attempts	-10.7767
यात	-10.7768
▁घडले	-10.7768
▁attempted	-10.7771
▁पेट	-10.7772
rt	-10.7773
▁kill	-10.7778
tha	-10.778
ट्या	-10.7781
▁प्रत्येकी	-10.7781
play	-10.7781
ांपैकी	-10.7784
rid	-10.7785
▁Pakistan	-10.7788
▁Regiment	-10.7788
▁मालमत्ता	-10.7788
▁शंभर	-10.7788
▁daily	-10.7788
▁सहाय्यक	-10.7788
▁Television	-10.7788
dom	-10.7788
▁इतक्या	-10.7789
▁बाबासाहेब	-10.7789
▁नेतृत्वाखाली	-10.7789
▁बिहार	-10.7789
▁घातले	-10.779
▁plot	-10.779
▁द्यावी	-10.779
▁hired	-10.7791
▁चहा	-10.7792
▁कांदा	-10.7793
▁Thus	-10.7794
▁लो	-10.7794
see	-10.7799
▁negative	-10.7799
▁suggest	-10.7799
▁arrested	-10.7803
▁Press	-10.7805
put	-10.7806
▁घ्यावे	-10.7807
▁तरुणी	-10.7808
▁voted	-10.7809
▁rank	-10.7812
२०	-10.7812
▁याआधी	-10.7818
▁affect	-10.7819
▁हाच	-10.7822
▁Ve	-10.7826
गण	-10.7827
room	-10.7827
dis	-10.7835
▁focused	-10.7836
▁vehicle	-10.7838
्क	-10.7838
ugh	-10.784
संदर्भात	-10.7846
▁भविष्य	-10.7849
▁Matt	-10.785
▁Ly	-10.7851
▁Mont	-10.7851
Star	-10.7855
▁वर्ल्ड	-10.7857
▁Square	-10.7857
▁composer	-10.7857
▁identity	-10.7857
▁अधीक्षक	-10.7857
▁किशोर	-10.7857
▁smart	-10.7857
▁महावितरण	-10.7857
▁extension	-10.7857
▁bottle	-10.7857
▁गडकरी	-10.7857
▁1955	-10.7858
▁Wilson	-10.7858
▁investigation	-10.7859
लन	-10.786
▁व्याज	-10.7866
▁जागे	-10.7866
▁chemical	-10.7869
वन	-10.7871
गल	-10.7872
▁रुपयांच्या	-10.7879
▁businesses	-10.788
dan	-10.7885
▁core	-10.7886
▁अमेरिका	-10.7888
gue	-10.7889
pped	-10.789
▁प्राण	-10.789
▁शेतकऱ्यां	-10.7891
▁धन	-10.7892
▁print	-10.7894
▁नेम	-10.7896
दु	-10.7897
▁villages	-10.7899
▁पं	-10.7899
▁उचल	-10.7902
▁36	-10.7905
▁incorporated	-10.7905
▁2008.	-10.7906
Maybe	-10.7912
निमित्त	-10.7915
▁ho	-10.7916
▁संच	-10.7916
▁awards	-10.792
▁sides	-10.7921
▁मिळू	-10.7923
▁थांबव	-10.7925
▁Sweden	-10.7926
▁bottom	-10.7926
▁drew	-10.7926
▁राजधानी	-10.7926
▁युनिट	-10.7926
▁scheme	-10.7926
▁instance	-10.7926
▁ठोक	-10.7926
▁घुस	-10.7926
▁आशिया	-10.7926
▁योगदान	-10.7926
▁fo	-10.7927
▁Daddy	-10.7927
▁वेगळी	-10.7927
▁Class	-10.7927
▁Lisa	-10.7929
▁सर्वेक्षण	-10.7929
▁Lady	-10.793
▁आल्याचे	-10.793
▁rose	-10.793
▁claims	-10.793
▁हें	-10.7931
▁थोडा	-10.7934
बु	-10.7934
▁टाकून	-10.7936
▁producing	-10.7936
Man	-10.7938
▁महत्त्वाचा	-10.794
▁प्रदूषण	-10.7942
▁target	-10.7952
▁pitch	-10.7954
▁13,	-10.7954
1%	-10.7959
▁करणार्या	-10.796
▁याबद्दल	-10.796
lla	-10.796
अस	-10.7961
▁पैशा	-10.7961
din	-10.7965
▁34	-10.7966
▁शंकर	-10.7966
▁Ford	-10.7967
हो	-10.7969
पुर	-10.797
▁गड	-10.7981
▁प्रकारचे	-10.7982
▁spin	-10.7985
▁वर्षाच्या	-10.7992
▁फेसबुक	-10.7992
▁aired	-10.7994
▁Premier	-10.7995
▁आश्चर्य	-10.7995
▁anniversary	-10.7995
▁easily	-10.7995
▁प्रदर्शित	-10.7995
▁jazz	-10.7995
▁prize	-10.7996
cker	-10.7996
▁transition	-10.7998
▁रवी	-10.7999
▁Ross	-10.8
▁proved	-10.8001
व्हर	-10.8003
थे	-10.8004
▁Born	-10.8008
▁खो	-10.8008
ाबाहेर	-10.8014
▁प्रो	-10.8014
▁del	-10.8017
7%	-10.8018
49	-10.8022
▁Come	-10.8023
▁कार्यालया	-10.8026
▁occurs	-10.8027
तू	-10.8028
▁Band	-10.8028
▁भारताचा	-10.8031
58	-10.8036
Ch	-10.8044
ister	-10.8046
▁आजच्या	-10.8048
▁balloon	-10.805
▁सूत्र	-10.8051
ताई	-10.8055
▁distinct	-10.8057
▁Cho	-10.8057
ada	-10.8059
nc	-10.8062
nk	-10.8062
▁zoo	-10.8063
▁Netherlands	-10.8065
▁स्मारक	-10.8065
▁fresh	-10.8065
▁Oxford	-10.8065
▁तपशील	-10.8065
▁Ocean	-10.8065
▁गणेशोत्सव	-10.8066
▁partnership	-10.8066
▁documentary	-10.8066
▁नागरी	-10.8068
▁शेत	-10.8069
▁सेंटर	-10.807
▁यावर्षी	-10.8072
▁advanced	-10.8076
▁त्रि	-10.8081
▁जबाबदार	-10.8094
del	-10.8095
▁Cu	-10.8095
hl	-10.8097
▁मालिकेत	-10.8098
▁बुड	-10.8102
▁bomb	-10.8103
▁habitat	-10.8107
मल	-10.8108
zo	-10.8108
sia	-10.8108
place	-10.8108
▁४५	-10.811
▁साई	-10.811
▁mill	-10.8111
ूळ	-10.812
▁champion	-10.812
र्ग	-10.812
▁tend	-10.8121
▁reaction	-10.8122
arian	-10.8122
▁भास	-10.8123
▁trouble	-10.8124
▁यावी	-10.8126
▁कृष्णा	-10.8126
▁materials	-10.8128
ों	-10.8129
Ar	-10.8129
▁Sand	-10.8131
ेंद्र	-10.8135
hen	-10.8135
▁संकेत	-10.8136
द्योगिक	-10.8136
▁twenty	-10.8136
▁आयपीएल	-10.8136
▁तिसऱ्या	-10.8136
▁literary	-10.8136
▁driving	-10.8136
▁स्कूल	-10.8136
▁everywhere	-10.8136
▁worldwide	-10.8137
▁निदान	-10.8137
▁Country	-10.8137
▁करायचा	-10.8137
▁selection	-10.8142
89	-10.8143
▁Jackson	-10.8144
▁लढत	-10.8145
▁upset	-10.8145
▁राहून	-10.8146
▁lock	-10.8146
▁विमानतळ	-10.8147
▁सोने	-10.8147
▁tri	-10.8153
not	-10.8153
dal	-10.8154
▁ठरणार	-10.8155
▁ideas	-10.8155
▁नुकत	-10.8156
▁टन	-10.8158
सोबतच	-10.8161
▁ahead	-10.8163
▁शेतकऱ्यांच्या	-10.8163
66	-10.8165
ापेक्षा	-10.8166
▁एकही	-10.8167
tel	-10.8176
▁measure	-10.8179
▁pain	-10.8181
▁fear	-10.8181
▁शाळां	-10.8181
gram	-10.8181
▁Gen	-10.8182
▁Jen	-10.8187
mas	-10.8187
▁विरुद्ध	-10.8188
▁locations	-10.819
▁bands	-10.8191
▁evening	-10.8192
▁involve	-10.8194
cur	-10.82
▁municipal	-10.8205
▁adjacent	-10.8207
▁receiving	-10.8207
▁technical	-10.8207
▁बनावट	-10.8207
▁श्रेणी	-10.8207
▁orchestra	-10.8207
▁Development	-10.8207
gel	-10.8207
▁laid	-10.8209
Mar	-10.8209
▁इतके	-10.8211
▁फो	-10.8211
आधी	-10.8212
▁reign	-10.8212
48	-10.8213
▁definition	-10.8214
▁resigned	-10.8216
▁ट्रेन	-10.8217
8%	-10.8217
▁positions	-10.8219
ीवर	-10.8219
ora	-10.822
▁देख	-10.8222
▁happen	-10.8222
▁weather	-10.8223
▁कोर्टात	-10.8224
ल्यामुळे	-10.8229
▁engineering	-10.8231
▁खरी	-10.8232
▁छाप	-10.8233
79	-10.8234
▁जातील	-10.8234
▁मानव	-10.8235
br	-10.8235
दिवस	-10.8237
▁11,	-10.8237
▁sh	-10.8238
▁अपघातात	-10.8244
▁reform	-10.8245
▁चालत	-10.8246
▁साल	-10.8246
▁मीठ	-10.8247
bur	-10.8251
ाधिक	-10.8256
▁require	-10.8257
▁plate	-10.8257
anda	-10.8258
▁सब	-10.826
CA	-10.826
▁commission	-10.8261
ोन	-10.8261
▁wearing	-10.8263
▁actions	-10.8267
▁यादीत	-10.8267
▁संस्थेच्या	-10.8271
▁गृह	-10.8275
▁Im	-10.8276
▁adventures	-10.8276
▁आसता	-10.8276
▁Channel	-10.8278
▁Liberal	-10.8278
▁Portuguese	-10.8278
▁इत्यादी	-10.8278
▁जीएसटी	-10.8278
▁spider	-10.8278
▁उशिरा	-10.8278
▁DVD	-10.8278
▁कायदेशीर	-10.8278
▁existence	-10.8279
▁specifically	-10.8279
▁northeast	-10.8279
▁बेस्ट	-10.8281
▁केरळ	-10.8282
▁घ्यावा	-10.8282
▁जु	-10.8282
स्त्र	-10.8284
▁नृत्य	-10.8285
▁cancer	-10.8286
▁समाजात	-10.8286
▁anyone	-10.8287
▁Hispanic	-10.8289
▁कोर्टाने	-10.829
▁forgot	-10.829
▁grown	-10.8291
▁becomes	-10.8295
100	-10.8297
▁जणांना	-10.8297
▁obtained	-10.8297
▁Cap	-10.8298
▁Cur	-10.8298
east	-10.8301
▁bow	-10.8305
▁यावे	-10.8305
▁भारतातील	-10.831
Sure	-10.831
▁supporting	-10.8317
▁होणारी	-10.8319
ांमधील	-10.8321
▁kick	-10.8326
▁calls	-10.8326
▁prime	-10.8327
▁camera	-10.833
who	-10.833
▁सुपर	-10.8332
py	-10.8333
▁Korea	-10.8342
▁मर	-10.8342
▁falls	-10.8344
Da	-10.8345
isation	-10.8349
▁earliest	-10.835
▁अनधिकृत	-10.835
▁महात्मा	-10.835
▁शुभेच्छा	-10.835
▁piano	-10.835
▁ग्रुप	-10.835
कारी	-10.835
▁प्रदेशाध्यक्ष	-10.835
▁आक्षेप	-10.835
▁shut	-10.8351
TA	-10.8352
▁debate	-10.8352
▁पदवी	-10.8353
▁७०	-10.8353
ean	-10.8354
▁द्यावा	-10.8354
▁अँड	-10.8356
▁37	-10.8359
▁दिशा	-10.8362
▁वेगळ्या	-10.8362
▁किरण	-10.8363
ासमोर	-10.8364
▁प्रारंभ	-10.8365
▁मिनिटे	-10.8366
▁दोषी	-10.8366
▁row	-10.8371
सि	-10.8373
▁खरा	-10.8375
▁यंत्र	-10.8375
▁जाग	-10.8381
▁Bla	-10.8381
rea	-10.8384
▁painted	-10.8385
MA	-10.8385
▁शकले	-10.8387
▁promote	-10.8389
families	-10.8393
nny	-10.8393
▁performing	-10.8397
▁Er	-10.8402
44	-10.8404
▁मार्केट	-10.8409
▁advance	-10.8409
▁Sri	-10.8409
▁crime	-10.8411
▁draft	-10.8412
▁इंजिन	-10.8422
▁independence	-10.8422
▁opposite	-10.8422
▁इंडियन	-10.8422
▁मजबूत	-10.8422
▁व्हायरल	-10.8422
▁धान्य	-10.8424
▁humans	-10.8425
ington	-10.8426
lit	-10.8426
▁शिवसेनेने	-10.843
था	-10.8432
पदी	-10.8434
ांचो	-10.8434
▁causes	-10.8434
▁robot	-10.8435
▁15,	-10.8436
▁Forest	-10.8436
▁learning	-10.8438
▁fairy	-10.8439
▁Fire	-10.8439
ॅन	-10.844
▁sets	-10.8443
▁स्वस्त	-10.8449
▁bio	-10.8451
▁cricket	-10.8459
िड	-10.8461
▁मोज	-10.8464
▁सायकल	-10.8467
ठी	-10.8468
▁closely	-10.847
▁तथा	-10.8474
▁ट्विट	-10.8479
▁चु	-10.8483
५	-10.8485
▁imp	-10.8485
▁bug	-10.8486
▁टाक	-10.8488
zy	-10.8489
ches	-10.849
▁eating	-10.849
▁न्यू	-10.8491
▁sex	-10.8491
▁नोट	-10.8492
ters	-10.8495
▁सुरूवात	-10.8495
▁smooth	-10.8495
▁appeal	-10.8495
▁स्थिर	-10.8495
▁धोकादायक	-10.8496
▁किमती	-10.8496
▁जातं	-10.8496
▁fence	-10.8497
To	-10.8497
▁कार्यकर्त्यांनी	-10.8499
▁येणे	-10.85
mond	-10.8502
▁celebrated	-10.8503
▁पालन	-10.8505
ili	-10.8506
▁धमकी	-10.851
▁landed	-10.8511
▁Light	-10.8513
लाही	-10.8513
▁उद्यान	-10.8513
लिंग	-10.8514
▁9,	-10.8517
▁successor	-10.8518
▁affected	-10.8522
▁संघाने	-10.8524
▁मुलीं	-10.8525
▁techniques	-10.8529
वज	-10.853
ato	-10.853
▁पावसामुळ	-10.8531
▁Trans	-10.8535
▁Tre	-10.8539
▁(20	-10.8539
nch	-10.854
▁Ger	-10.8544
ंचं	-10.8544
▁shortly	-10.8546
▁tie	-10.8547
जनक	-10.855
▁Inside	-10.8554
णाऱया	-10.8556
2)	-10.8562
▁objects	-10.8564
▁connection	-10.8564
▁journal	-10.8566
वर्ग	-10.8568
▁Memorial	-10.8569
▁criminal	-10.8569
▁dynasty	-10.8569
▁Cambridge	-10.8569
▁context	-10.8569
▁सलमान	-10.8569
▁importance	-10.8569
▁1953	-10.857
▁था	-10.8573
ug	-10.8575
▁टू	-10.8576
05	-10.8576
▁कर्मचाऱ्यांना	-10.8577
tti	-10.8577
▁गटात	-10.8578
▁questions	-10.8581
▁forever	-10.8584
▁scholars	-10.8586
▁कौशल्य	-10.8587
▁पडणार	-10.8587
▁(17	-10.8589
▁indicate	-10.8591
▁कोर्ट	-10.8591
▁Ci	-10.8592
92	-10.8593
heim	-10.8594
त्त	-10.8594
▁Golden	-10.8596
▁थर	-10.8598
▁Fred	-10.8604
▁वास	-10.8604
chen	-10.8605
▁उद्	-10.8607
▁48	-10.8609
धा	-10.861
▁स्थितीत	-10.861
शक्ती	-10.8615
▁त्यानं	-10.8616
▁Bowl	-10.8617
▁grant	-10.8618
▁कण	-10.8626
▁सभागृह	-10.8626
▁factors	-10.8627
▁theme	-10.8628
ेचे	-10.8629
▁passengers	-10.8632
▁serious	-10.8633
▁drawing	-10.8634
्ल	-10.8634
▁12,	-10.8636
▁poem	-10.8636
▁कंपनीच्या	-10.8637
sey	-10.8638
teen	-10.8639
बो	-10.8639
▁उस	-10.864
▁खंडपीठा	-10.8642
▁Greece	-10.8643
▁Imperial	-10.8643
▁medicine	-10.8643
▁कर्जमाफी	-10.8643
▁डिजिटल	-10.8643
▁domestic	-10.8643
▁visual	-10.8643
▁मोफत	-10.8643
▁Lewis	-10.8643
▁translation	-10.8643
▁पालघर	-10.8643
SC	-10.8643
▁२०१९	-10.8644
▁लिटर	-10.8644
▁प्रदान	-10.8645
▁Garden	-10.8645
▁sight	-10.8645
▁owl	-10.8646
▁नेत्यांनी	-10.8647
▁Pope	-10.8663
▁Sk	-10.8663
▁(1	-10.8663
जवळील	-10.8664
▁Gor	-10.8664
MS	-10.8665
sur	-10.8666
▁वापरून	-10.8667
uni	-10.8668
▁39	-10.8668
▁गेलेल्या	-10.867
▁churches	-10.867
▁वावर	-10.8672
▁एकनाथ	-10.8672
lat	-10.8672
▁lose	-10.8674
▁मुल	-10.8675
▁painting	-10.8679
▁containing	-10.868
▁End	-10.8681
▁यापुढे	-10.8684
▁राजेश	-10.8686
हळू	-10.869
▁reveal	-10.8693
▁Kar	-10.8695
▁Au	-10.8697
▁लेखन	-10.8698
▁starr	-10.8698
▁वेगळा	-10.8699
▁Command	-10.87
▁purchase	-10.8706
gal	-10.8707
▁16,	-10.8707
▁brief	-10.8708
▁Holy	-10.8708
▁repair	-10.871
▁crying	-10.8713
▁begin	-10.8717
▁Missouri	-10.8718
▁धनंजय	-10.8718
▁सक्रिय	-10.8718
▁enemy	-10.8718
▁अभिनय	-10.8718
▁residence	-10.8718
▁अडीच	-10.8718
▁honey	-10.8718
▁sought	-10.8718
▁राज्यपाल	-10.8718
▁clock	-10.8719
▁अण्णा	-10.8719
▁background	-10.872
▁Harry	-10.8722
▁Maryland	-10.8723
व्य	-10.8724
96	-10.8724
ंकडून	-10.8729
gri	-10.8732
▁na	-10.8732
▁स्प	-10.8733
tis	-10.8734
▁collected	-10.8735
▁घरे	-10.8736
▁निवडणुकां	-10.8737
▁नोटा	-10.8738
long	-10.8738
▁सराव	-10.8738
Mom	-10.8741
06	-10.8741
72	-10.8747
NA	-10.8748
ST	-10.8748
▁वाढल्या	-10.8748
▁विमा	-10.8749
hill	-10.8749
▁उदय	-10.875
▁feed	-10.8753
▁गणित	-10.8753
▁educational	-10.8756
▁institutions	-10.8759
raw	-10.8759
arch	-10.8759
▁contest	-10.876
▁आवडत	-10.8761
▁2005.	-10.8763
▁Grandma	-10.8765
run	-10.8766
▁ची	-10.8769
▁l	-10.8775
िला	-10.8776
▁मूल्य	-10.8778
▁wine	-10.8778
▁चौकात	-10.8779
▁अधिकाऱ्यां	-10.878
▁41	-10.8781
▁हेही	-10.8784
ore	-10.8784
▁राहू	-10.8786
OK	-10.8786
63	-10.8786
▁application	-10.8787
▁नातेवाईक	-10.8788
▁Francis	-10.8791
52	-10.8793
▁Federation	-10.8793
▁defense	-10.8793
▁honour	-10.8793
▁scoring	-10.8793
▁पिंपरी	-10.8793
▁उत्कृष्ट	-10.8793
▁introduction	-10.8793
▁lawyer	-10.8794
▁message	-10.8794
▁उंची	-10.8795
tern	-10.8797
PS	-10.8797
▁argued	-10.8798
▁applications	-10.8798
▁note	-10.8799
▁टो	-10.88
ीं	-10.88
▁Count	-10.8801
▁जारी	-10.8801
▁पोहच	-10.8804
▁missed	-10.8807
▁lift	-10.8808
graph	-10.8809
▁Adam	-10.8809
chu	-10.8809
▁Nor	-10.8813
▁पडून	-10.8816
ट्ट	-10.8823
▁electric	-10.8823
▁कोणीही	-10.8827
धी	-10.883
▁चालणार	-10.8832
▁तंत्र	-10.8836
▁आल्यावर	-10.8838
▁गि	-10.8839
▁cent	-10.8839
विरोधी	-10.8843
िद	-10.8844
▁standards	-10.8846
▁तुट	-10.8846
▁विचारले	-10.8855
▁welcome	-10.8857
term	-10.8858
▁bee	-10.8859
▁नजर	-10.8861
▁shoes	-10.8864
▁पाहत	-10.8864
LA	-10.8865
▁असोसिएशन	-10.8866
▁Library	-10.8869
▁steel	-10.8869
▁composition	-10.8869
▁medieval	-10.8869
▁शपथ	-10.8869
▁sale	-10.8869
▁talent	-10.8869
▁बचत	-10.8869
▁1936	-10.887
▁duty	-10.8871
▁vice	-10.8871
▁समर्थक	-10.8874
▁se	-10.8874
▁खेळत	-10.8875
▁abandoned	-10.8877
lock	-10.8878
cri	-10.8879
▁64	-10.8882
▁मस्त	-10.8883
▁2009.	-10.8884
▁Head	-10.8888
▁comic	-10.8891
७	-10.8893
▁जाण्याची	-10.8895
lim	-10.8896
RC	-10.8897
▁माणसा	-10.8897
▁Ball	-10.8901
▁परीक्षे	-10.8902
ल्ला	-10.8903
▁speak	-10.8903
▁बोर	-10.8913
▁38	-10.8915
▁Ray	-10.8917
▁निवडणुका	-10.8917
बंदी	-10.8917
onic	-10.8919
mel	-10.8924
▁hour	-10.8927
▁shapes	-10.8927
▁कोहली	-10.8929
कडील	-10.893
▁fishing	-10.893
▁islands	-10.893
▁आयुष्यात	-10.8931
▁pan	-10.8931
वास	-10.8932
▁सारे	-10.8932
▁classic	-10.8932
▁सेल	-10.8934
▁एकर	-10.8934
▁bush	-10.8934
chan	-10.8935
▁severe	-10.8935
vid	-10.8937
▁rat	-10.8938
▁des	-10.8938
▁Not	-10.8939
▁drug	-10.8941
▁device	-10.8942
▁watching	-10.8944
▁Ministry	-10.8945
▁expensive	-10.8945
▁उघडकीस	-10.8945
▁खाजगी	-10.8945
▁पंधरा	-10.8945
▁रशियन	-10.8945
▁snake	-10.8945
▁अवस्था	-10.8945
▁चेहरा	-10.8945
▁२०१७	-10.8945
▁arrangement	-10.8945
▁टेबल	-10.8945
▁प्रशासकीय	-10.8945
▁kingdom	-10.8946
▁resistance	-10.8946
▁actress	-10.8946
▁1951	-10.8946
▁Norway	-10.8946
▁अन्यथा	-10.8946
▁सहायक	-10.8946
AR	-10.8946
▁ownership	-10.8946
▁अन्याय	-10.8948
वडे	-10.8948
▁graduate	-10.8949
▁होणारे	-10.8952
▁chosen	-10.8953
▁values	-10.8954
mit	-10.8957
▁rope	-10.8957
▁पडलेल्या	-10.8957
▁repeated	-10.8958
93	-10.8959
▁आमचा	-10.8964
▁भिंती	-10.8964
ban	-10.8964
षा	-10.8964
▁views	-10.8967
▁tape	-10.8967
▁conduct	-10.8967
▁चल	-10.8968
▁fleet	-10.897
▁entirely	-10.8971
▁महिलांना	-10.8971
▁नाकार	-10.8972
▁सोड	-10.8972
▁कोट	-10.8972
▁एकीकड	-10.8973
भि	-10.8973
▁mix	-10.8975
style	-10.8976
Ca	-10.8976
पुरी	-10.8979
▁49	-10.8981
▁figures	-10.8982
▁प्रसाद	-10.8984
▁मालिके	-10.8986
▁19,	-10.8989
▁सामन्या	-10.8992
cc	-10.8994
गृह	-10.8995
▁तोपर्यंत	-10.8995
umb	-10.8996
ovi	-10.8997
▁switch	-10.8997
▁मिनिट	-10.8997
including	-10.8997
▁carrying	-10.8998
▁पोहोच	-10.9001
▁वरील	-10.9001
level	-10.9003
▁fe	-10.9005
▁Dun	-10.9009
▁custom	-10.901
▁Males	-10.901
9%	-10.9012
▁दोघां	-10.9013
▁सरपंच	-10.9013
▁अली	-10.9016
▁राज्याचे	-10.9022
▁Labour	-10.9022
▁ठाकूर	-10.9022
▁Prize	-10.9023
▁वाटतं	-10.9023
▁freedom	-10.9023
▁replacement	-10.9024
▁निघाले	-10.9024
▁Naval	-10.9024
▁reasons	-10.9025
▁Whit	-10.9025
▁Temple	-10.9027
मुक्त	-10.9027
▁बऱ्याच	-10.9029
Billboard	-10.9032
tr	-10.9032
▁folk	-10.9032
▁passes	-10.9033
For	-10.9034
ांतर्गत	-10.9035
▁musician	-10.9035
कत	-10.9036
▁Human	-10.9039
▁belonged	-10.9039
▁राहिली	-10.9039
TC	-10.904
▁hits	-10.9044
▁beat	-10.9048
▁ऑफिस	-10.9054
ापूर	-10.9054
▁jar	-10.9057
▁26,	-10.9058
▁Je	-10.9064
▁environmental	-10.9067
ua	-10.9069
▁फ्ल	-10.9069
▁da	-10.907
▁सेवे	-10.9074
▁stretch	-10.9074
▁Hay	-10.9082
प्रमुख	-10.9084
gh	-10.9087
ेने	-10.9089
▁seal	-10.9092
▁2011.	-10.9092
▁Region	-10.9092
▁पाहू	-10.9095
▁(2	-10.9099
▁देशपांडे	-10.9099
▁leaf	-10.91
33	-10.91
▁1937	-10.9101
▁अवघड	-10.9101
55	-10.9101
▁आपलं	-10.9102
▁राज्यमंत्री	-10.9106
▁दिलेली	-10.9107
▁Though	-10.9107
▁जरा	-10.9108
▁spirit	-10.9108
▁Here	-10.9108
▁आणून	-10.9109
▁वाढला	-10.9112
▁typical	-10.9112
▁सर्वत्र	-10.9112
▁जसे	-10.9113
▁कम	-10.9113
▁Leo	-10.9116
▁singles	-10.9117
▁replace	-10.9118
▁राबविण्या	-10.9119
▁Miller	-10.9122
▁Arch	-10.9124
▁Classic	-10.9125
▁वास्तव	-10.9125
▁मध्यम	-10.9128
▁wouldn	-10.913
द्य	-10.9133
आहे	-10.9133
▁mad	-10.9134
▁पक्षाने	-10.9136
▁twins	-10.9141
▁Age	-10.9141
▁डाय	-10.9145
लर	-10.9145
aka	-10.9149
▁vi	-10.9149
कले	-10.9149
▁concern	-10.9152
▁Clark	-10.9153
साहेब	-10.9153
▁पैकी	-10.9154
Mommy	-10.9155
▁purposes	-10.9156
▁AD	-10.9157
प्पा	-10.9163
▁sections	-10.9163
▁survey	-10.9165
▁300	-10.9168
▁म्ह	-10.9169
▁attacked	-10.9169
▁कोसळ	-10.9169
▁वृद्ध	-10.9171
▁परिषदेच्या	-10.9177
▁expedition	-10.9177
▁investment	-10.9177
▁railroad	-10.9178
▁व्यवस्थापक	-10.9178
▁ऊर्जा	-10.9178
▁uniform	-10.9178
▁प्रोत्साहन	-10.9178
▁1926	-10.9179
▁देणाऱ्या	-10.918
▁1918	-10.918
versus	-10.9182
▁sail	-10.9183
▁23,	-10.9183
िक्स	-10.9184
▁IV	-10.9188
▁representation	-10.9188
▁एखादा	-10.9188
▁budget	-10.9191
▁अस्तित्व	-10.9191
▁skills	-10.9193
चर	-10.9194
▁हंगाम	-10.9197
▁Os	-10.9197
cast	-10.9199
▁funds	-10.9199
▁Allen	-10.9214
▁wheel	-10.9215
▁असावा	-10.9215
▁Live	-10.9218
▁Cl	-10.9219
▁गळ	-10.9219
्वा	-10.922
धान	-10.9221
ency	-10.9222
Po	-10.9222
▁patients	-10.9223
र्ण	-10.9224
▁दिल्याने	-10.9225
ाचेर	-10.9227
्न	-10.9229
अंतर्गत	-10.9234
▁faces	-10.9236
▁Only	-10.9239
▁Cape	-10.924
▁दोघे	-10.924
▁sum	-10.924
▁बांगलादेश	-10.9242
▁तत्काली	-10.9243
▁असत	-10.9255
▁Vietnam	-10.9256
▁Lincoln	-10.9256
▁worried	-10.9256
▁पनवेल	-10.9256
▁प्रेरणा	-10.9256
▁सिडको	-10.9256
▁injury	-10.9256
▁Cro	-10.9256
▁blanket	-10.9257
▁गुन्हेगार	-10.9257
▁raid	-10.9257
▁लोकसंख्या	-10.9257
kan	-10.9257
▁History	-10.9258
▁Howard	-10.9259
▁सामोरे	-10.926
▁Win	-10.9261
mat	-10.9265
▁टे	-10.9267
▁Regional	-10.9269
▁im	-10.9272
▁पावले	-10.9273
▁सोन	-10.9274
▁Latino	-10.9274
रिया	-10.9275
▁busy	-10.9276
▁Jews	-10.9282
मुख्यमंत्र्यांनी	-10.9284
▁lands	-10.9285
▁starts	-10.9287
ाडे	-10.9288
▁Ren	-10.9289
▁carbon	-10.9289
९	-10.9292
▁राजकारणात	-10.9296
▁हॅ	-10.9296
▁drop	-10.9296
▁nap	-10.9297
▁bell	-10.93
▁बहु	-10.9301
▁bone	-10.9302
एफ	-10.9304
▁याविषयी	-10.9304
▁क्ल	-10.9304
ssa	-10.9304
ावं	-10.9305
▁Song	-10.9316
▁अज	-10.9318
कार्य	-10.9322
▁balance	-10.9324
▁taste	-10.9324
▁manage	-10.9328
▁shift	-10.9329
65	-10.9329
▁विकेट	-10.933
▁trust	-10.9332
▁Revolution	-10.9335
▁मुद्दे	-10.9335
▁Michigan	-10.9336
▁confused	-10.9336
▁personnel	-10.9336
▁inhabitants	-10.9336
▁Jacob	-10.9336
▁जिवंत	-10.9337
▁व्हावी	-10.9337
▁चौथ्या	-10.9337
▁नसल्यामुळे	-10.9337
▁presidential	-10.9338
ivity	-10.9339
▁Simon	-10.9339
▁बाबी	-10.9341
▁अमेरिकन	-10.9342
तत्काळ	-10.9346
▁Alex	-10.9347
▁शैली	-10.9348
▁उत्पादने	-10.9349
▁हम	-10.9351
▁saved	-10.9352
▁roads	-10.9353
▁requires	-10.9353
▁USA	-10.9354
▁Fair	-10.9356
▁motion	-10.9357
▁colour	-10.9358
▁symbol	-10.936
▁ruled	-10.9361
▁क्रांती	-10.9362
▁EP	-10.9367
ets	-10.9367
ीज	-10.9367
▁significantly	-10.9367
▁मुलाला	-10.9369
▁nor	-10.937
▁भारताला	-10.937
▁pointed	-10.9379
▁अंतरावर	-10.9381
▁सां	-10.9381
64	-10.9382
pha	-10.9382
Mi	-10.9385
▁हित	-10.939
▁कुल	-10.9394
Ha	-10.9395
▁बल	-10.9395
▁bass	-10.9398
ges	-10.94
कृत	-10.94
▁Sur	-10.9402
▁उपस्थितीत	-10.9402
▁hero	-10.9406
cia	-10.9406
00	-10.9407
फर	-10.9408
iya	-10.9411
▁हल्ल्या	-10.9411
▁सभे	-10.9412
सार	-10.9412
चाही	-10.9413
▁Mur	-10.9414
▁Hindu	-10.9414
चार	-10.9414
▁circuit	-10.9416
▁lyrics	-10.9416
▁बहुतेक	-10.9416
▁मोहम्मद	-10.9416
▁सत्ताधारी	-10.9416
▁purple	-10.9416
▁स्थळ	-10.9416
▁फुटबॉल	-10.9416
▁जयंत	-10.9416
zer	-10.9416
▁combination	-10.9417
▁1928	-10.9417
▁1935	-10.9417
▁उंच	-10.9418
▁Additionally	-10.9418
▁परदेशी	-10.942
▁अर्धा	-10.942
▁ठरली	-10.9421
▁examples	-10.9421
bed	-10.9421
▁feels	-10.9421
▁दृश्य	-10.9422
▁cable	-10.9426
▁possibly	-10.9427
▁पथकाने	-10.9428
▁मोदींनी	-10.943
▁notably	-10.9431
▁rocket	-10.9431
्यो	-10.9432
▁चर्च	-10.9433
▁Mag	-10.9434
fl	-10.9435
▁gate	-10.9435
▁आणण्या	-10.9439
▁Lang	-10.9442
▁2004.	-10.9443
बार	-10.9447
▁maintained	-10.9451
ich	-10.9452
34	-10.9453
▁cow	-10.9453
विणे	-10.9454
▁generation	-10.9462
ठे	-10.9464
▁Ty	-10.9469
▁load	-10.947
zar	-10.947
▁बाळग	-10.9471
▁j	-10.9473
▁acts	-10.9477
▁तेच	-10.9478
स्टर	-10.9486
▁file	-10.9487
▁मोरे	-10.9488
▁Vol	-10.9488
ien	-10.9489
▁Seven	-10.9491
▁Thank	-10.9492
mic	-10.9495
▁FM	-10.9496
▁offices	-10.9496
▁Tennessee	-10.9496
▁अग्निशमन	-10.9496
▁फिल्म	-10.9496
▁bread	-10.9496
▁chapter	-10.9496
ela	-10.9496
▁lunch	-10.9496
▁genre	-10.9497
▁प्रकृती	-10.9497
▁नेत्या	-10.9498
▁biggest	-10.9499
▁mark	-10.9499
▁काढण्यासाठी	-10.9502
▁equivalent	-10.9508
▁homes	-10.9508
धन	-10.951
▁संघटनेचे	-10.9511
▁arts	-10.9511
▁Early	-10.9511
▁wondered	-10.9512
▁पीक	-10.9512
▁mud	-10.9513
matic	-10.9513
▁मुंबईच्या	-10.9516
दन	-10.9518
▁controlled	-10.9524
▁त्याबाबत	-10.9525
▁जनतेला	-10.9525
▁Bas	-10.9531
▁PC	-10.9533
▁showing	-10.9547
▁founding	-10.955
▁Bri	-10.9551
▁कंपन्यां	-10.9554
मार	-10.9555
spec	-10.9556
▁राय	-10.9559
ima	-10.9564
wo	-10.9566
▁participate	-10.9566
▁बॉलिवूड	-10.9566
▁Austria	-10.9567
ांतून	-10.9571
▁फेटाळ	-10.9571
aki	-10.9572
▁Conservative	-10.9578
▁Switzerland	-10.9578
▁policies	-10.9578
▁जनजागृती	-10.9578
▁बंदोबस्त	-10.9578
▁बजेट	-10.9578
▁जिल्हाध्यक्ष	-10.9578
▁Melbourne	-10.9578
▁विसर्जन	-10.9578
▁milk	-10.9578
▁tiny	-10.9578
▁wore	-10.9578
▁1924	-10.9579
▁Egypt	-10.9581
यु	-10.9581
▁कागदपत्रे	-10.9583
▁historian	-10.9584
▁religion	-10.9584
▁pattern	-10.9584
▁जोडी	-10.9585
▁Philippines	-10.9587
▁रान	-10.9589
rated	-10.9592
एक	-10.9594
▁Dave	-10.9595
▁राहतात	-10.9596
दिन	-10.9597
▁funding	-10.9598
tus	-10.96
▁टोल	-10.9602
lle	-10.9603
▁flood	-10.9604
▁Unit	-10.9604
▁८०	-10.9606
श्र	-10.9607
SP	-10.9607
▁रुप	-10.9609
ash	-10.9614
▁जंगल	-10.9617
▁21,	-10.9623
▁Sub	-10.9623
▁जाहिरात	-10.9634
▁page	-10.9637
bat	-10.9638
rate	-10.964
▁43	-10.9641
▁classical	-10.9643
Why	-10.9643
▁Social	-10.9645
▁कामाला	-10.9648
▁बसून	-10.9648
▁narrow	-10.9649
▁Hot	-10.9651
▁प्रतिबंध	-10.9652
▁पाट	-10.9658
▁Mexican	-10.966
▁Quebec	-10.966
▁Taylor	-10.966
▁agricultural	-10.966
▁hockey	-10.966
▁ट्रम्प	-10.966
▁लैंगिक	-10.966
▁जगताप	-10.966
▁tropical	-10.966
▁clapped	-10.966
mus	-10.966
ui	-10.966
▁swings	-10.966
key	-10.966
र्व	-10.9661
Go	-10.9661
tric	-10.9662
▁हद्दीत	-10.9663
▁ठेवली	-10.9665
▁useful	-10.9665
▁आणण्यासाठी	-10.9666
▁Championships	-10.9667
▁attached	-10.9667
▁Son	-10.9667
▁scheduled	-10.9669
▁fort	-10.9669
▁घोषित	-10.967
▁एकत्रित	-10.9671
▁Fla	-10.9673
▁forget	-10.9674
▁kite	-10.9675
▁Ce	-10.9677
08	-10.9678
▁Space	-10.9682
वाडा	-10.9688
▁दाखवत	-10.9688
्ह	-10.9689
योग	-10.969
vol	-10.9691
▁sole	-10.9692
▁संघाचे	-10.9695
ंपैकी	-10.9697
▁पंप	-10.9697
▁गाय	-10.9699
▁Program	-10.9702
▁बनले	-10.9705
▁बोलले	-10.9706
▁horn	-10.9707
ved	-10.9708
▁अर्थातच	-10.971
▁कोणती	-10.9712
▁भाषेत	-10.9713
िव	-10.9713
न्ट	-10.9716
rad	-10.9719
▁अपयश	-10.9721
▁नेता	-10.9722
▁Nations	-10.9727
iff	-10.973
▁crossing	-10.9733
▁wise	-10.9739
▁Lieutenant	-10.9742
▁twelve	-10.9742
▁easy	-10.9742
▁गोविंद	-10.9742
▁पक्षनेते	-10.9742
▁ध्येय	-10.9742
▁शेकडो	-10.9742
▁Frederick	-10.9743
▁entry	-10.9743
▁1934	-10.9743
▁गेलो	-10.9744
▁वेस्ट	-10.9746
▁फायदे	-10.9746
स्कर	-10.9747
are	-10.9749
▁Sound	-10.975
▁सांभाळ	-10.975
▁rejected	-10.9751
▁Test	-10.9751
▁Bear	-10.9752
▁चेंडू	-10.9752
▁संपत्ती	-10.9753
▁cheered	-10.9755
▁rooms	-10.9758
▁जागी	-10.9759
▁वाढत्या	-10.976
att	-10.976
▁trail	-10.976
▁drawn	-10.9761
▁Commander	-10.9761
pol	-10.9763
▁आफ्रिके	-10.9763
▁मोहन	-10.9765
▁बाजूने	-10.9766
▁हमी	-10.9767
▁वर्ण	-10.977
▁seems	-10.9771
eu	-10.9775
▁त्याचं	-10.9776
ल्फ	-10.9777
▁qua	-10.9778
▁14,	-10.9779
▁whereas	-10.9779
▁बाय	-10.9781
▁सांगतात	-10.9784
AC	-10.9785
▁tools	-10.9788
▁पूर	-10.9788
▁handle	-10.9788
▁स्थानक	-10.9792
▁खोली	-10.9794
▁झाडे	-10.9797
▁offering	-10.9799
67	-10.98
▁44	-10.9801
▁जागेवर	-10.9802
▁Jay	-10.9809
▁फे	-10.9813
Con	-10.9814
▁represents	-10.9815
eng	-10.9817
▁progress	-10.9817
▁रविवार	-10.9819
▁noises	-10.9823
▁waiting	-10.9824
▁सोडले	-10.9825
▁micro	-10.9825
▁Minnesota	-10.9825
▁Professor	-10.9825
▁Project	-10.9825
▁junior	-10.9825
▁अज्ञात	-10.9825
▁नॅशनल	-10.9825
▁हैदराबाद	-10.9825
▁घातली	-10.9825
▁Business	-10.9826
▁इंधन	-10.9826
▁रवींद्र	-10.9826
▁मॅ	-10.9826
▁तहसीलदार	-10.9826
▁philosophy	-10.9826
▁gray	-10.9827
▁घट्ट	-10.9827
▁vary	-10.9828
▁1900	-10.9828
ero	-10.983
खे	-10.983
▁डोंबिवली	-10.9831
▁रुग्णां	-10.9831
▁submarine	-10.9832
▁intelligence	-10.9834
▁survived	-10.9835
▁Instead	-10.9837
जित	-10.9838
▁parent	-10.9839
▁Del	-10.984
▁जास्तीत	-10.9844
रुपयांचे	-10.9845
▁खालील	-10.9846
▁20,	-10.9848
▁credited	-10.9848
▁exception	-10.9851
वाळ	-10.9851
ties	-10.9851
ras	-10.9852
वाय	-10.9853
▁वाढवण्या	-10.9856
▁एच	-10.9857
▁मुळात	-10.9858
▁चौ	-10.9862
▁मद्य	-10.9863
ारा	-10.9864
▁29,	-10.9868
Of	-10.987
▁देणारे	-10.9871
▁cur	-10.9871
ंसह	-10.9872
▁सांगता	-10.9875
▁टिप	-10.9876
43	-10.9876
▁protected	-10.9878
ुड	-10.988
▁articles	-10.9882
▁grade	-10.9884
▁airline	-10.9886
some	-10.9887
▁पुस्तके	-10.9888
▁boys	-10.9891
cell	-10.9893
59	-10.9894
▁बिग	-10.9897
▁रोखण्या	-10.9899
▁ends	-10.9901
▁मांडले	-10.9903
riot	-10.9903
▁वसंत	-10.9909
वण	-10.9909
▁Manchester	-10.991
▁interior	-10.991
▁manufacturing	-10.991
▁teeth	-10.991
▁yield	-10.991
▁प्रामुख्याने	-10.991
▁सीसीटीव्ही	-10.991
▁हजेरी	-10.991
▁गरीब	-10.991
▁Douglas	-10.991
▁सोहळा	-10.991
▁स्फोट	-10.991
▁२०१६	-10.991
▁items	-10.9911
▁1927	-10.9911
▁Islamic	-10.9912
▁Motor	-10.9913
▁टाइम्स	-10.9914
68	-10.9918
▁कुठल्याही	-10.9918
▁solid	-10.9918
01	-10.992
▁Moon	-10.992
मधे	-10.9922
▁खर	-10.9923
▁Bus	-10.9923
▁फंड	-10.9924
gate	-10.9927
▁तत्त्व	-10.9928
▁अट	-10.9928
▁मारली	-10.993
▁भव्य	-10.9931
▁protest	-10.9931
▁अल्प	-10.9932
▁Brian	-10.9934
▁mountains	-10.9935
▁Wo	-10.9936
▁भूमिके	-10.9937
sar	-10.9937
▁bo	-10.9938
▁How	-10.9939
BA	-10.9943
▁killing	-10.9947
▁Baron	-10.9951
53	-10.9952
▁घरातील	-10.9954
▁fill	-10.9954
press	-10.9956
कोट	-10.9959
▁दिसतात	-10.9961
▁असणारे	-10.9963
▁Moore	-10.9964
une	-10.9965
▁पाया	-10.9967
▁व्यक्तीला	-10.9967
▁crash	-10.9969
▁structures	-10.9969
▁eggs	-10.997
bri	-10.9971
▁झु	-10.9972
▁आधारे	-10.9975
ंबर	-10.9976
▁Ser	-10.9977
ॅम	-10.9977
▁कारखान्या	-10.9978
▁raise	-10.9983
▁po	-10.9984
yr	-10.9988
▁प्रवाह	-10.9988
▁neighbour	-10.9994
▁मनुष्य	-10.9994
▁Samuel	-10.9994
▁consecutive	-10.9994
▁टँकर	-10.9994
▁डिझाइन	-10.9994
▁cheese	-10.9994
▁breath	-10.9994
▁घातला	-10.9994
▁आकडेवारी	-10.9994
▁ऊस	-10.9994
▁shook	-10.9994
▁मनोहर	-10.9995
▁जैन	-10.9995
▁रायगड	-10.9995
▁accidentally	-10.9995
▁व्हायला	-10.9995
▁Danish	-10.9996
▁classified	-10.9996
▁आलो	-10.9997
▁मनोज	-10.9998
54	-10.9998
▁sword	-10.9999
▁concluded	-11
▁Medal	-11
▁अजय	-11.0002
ison	-11.0002
▁(3	-11.0002
▁Six	-11.0005
▁Bush	-11.0005
▁dolls	-11.0006
▁describes	-11.0007
▁उभी	-11.0008
▁representative	-11.0009
▁रुपयां	-11.001
▁See	-11.0014
▁पुढच्या	-11.0014
▁दम	-11.0014
▁महाग	-11.0019
▁sailed	-11.0022
bus	-11.0022
प्प	-11.0024
▁courses	-11.003
▁Fri	-11.0031
erv	-11.0032
▁सूत्रांन	-11.0036
▁employees	-11.004
▁फी	-11.0041
रू	-11.0041
ida	-11.0041
▁गाण्या	-11.0042
ियर	-11.0042
hn	-11.0042
▁गिर	-11.0045
डक	-11.0046
▁mail	-11.0047
डय	-11.0047
▁पक्षात	-11.0048
▁Cam	-11.005
च्च	-11.005
मध्येही	-11.0051
die	-11.0054
▁बसले	-11.0057
▁capita	-11.0058
▁Down	-11.0059
▁देशभरात	-11.0059
94	-11.006
▁भाजी	-11.0065
▁associate	-11.0066
▁auto	-11.0072
▁प्रकाशन	-11.0074
▁fr	-11.0076
▁wins	-11.0077
ूड	-11.0079
▁thick	-11.0079
▁crowd	-11.008
▁ऑपरेशन	-11.008
▁कर्तव्य	-11.008
▁निविदा	-11.008
▁न्यूझीलंड	-11.008
▁afraid	-11.008
▁स्मार्टफोन	-11.008
▁wire	-11.008
▁२०१५	-11.008
▁Anderson	-11.008
▁शस्त्र	-11.008
▁1923	-11.0082
ादरम्यान	-11.0082
band	-11.0083
▁कॉलनी	-11.0083
ans	-11.0084
▁planet	-11.0087
०	-11.0088
▁दहावी	-11.0088
▁poly	-11.009
प्रमाणेच	-11.009
▁Nazi	-11.0092
▁एक्स	-11.0092
▁portrayed	-11.0093
gle	-11.0093
▁element	-11.0095
▁circle	-11.0095
▁यंदाच्या	-11.0099
चालक	-11.0101
bound	-11.0101
nne	-11.0104
▁यात्रे	-11.0105
▁पीडित	-11.0108
स्थान	-11.0109
▁Tur	-11.0112
▁मालकी	-11.0113
chy	-11.0114
▁सकाळ	-11.0114
▁अर्थसंकल्प	-11.0116
▁Tar	-11.0116
▁28,	-11.0117
▁Kh	-11.0119
▁केंद्रात	-11.012
▁लागवड	-11.0123
ध्य	-11.0123
phy	-11.0124
▁visitors	-11.0126
rom	-11.0128
▁पुल	-11.013
▁Anne	-11.013
▁reflect	-11.0132
west	-11.0133
▁Mass	-11.0134
▁उत्तरे	-11.0136
▁सत्र	-11.0137
ज्ञ	-11.0137
nna	-11.0138
▁उठव	-11.014
ika	-11.014
▁ban	-11.0144
▁stands	-11.0144
Tom	-11.0147
▁रू	-11.0149
▁बरे	-11.0152
▁खेळी	-11.0155
ography	-11.0155
▁फर	-11.0156
▁thin	-11.0156
▁designs	-11.0156
▁गाळ	-11.0157
▁routes	-11.016
्याचा	-11.016
▁चेन्नई	-11.0166
▁Kentucky	-11.0166
▁recognition	-11.0166
▁शिल्लक	-11.0166
▁सगळं	-11.0166
▁bodies	-11.0166
▁Jenny	-11.0167
▁ठरेल	-11.0167
▁सुरक्षे	-11.0167
▁southeast	-11.0167
▁Local	-11.0167
गावकर	-11.0169
▁दोघांनी	-11.0169
nTMt	-11.0171
▁assumed	-11.0172
had	-11.0173
▁parallel	-11.0174
▁document	-11.0175
Car	-11.0177
▁Phil	-11.018
▁1933	-11.018
िग	-11.0182
▁arch	-11.0183
▁वेदना	-11.0183
ंव	-11.0187
▁relations	-11.0188
▁Americans	-11.0188
िप	-11.0191
log	-11.0192
▁समाजाला	-11.0194
▁ताकद	-11.0196
▁मनोरंजन	-11.0198
▁2010.	-11.0203
▁Sky	-11.0205
▁75	-11.0207
▁धर्मा	-11.0208
▁Way	-11.0208
▁FC	-11.021
ंदे	-11.0214
PA	-11.0224
▁tea	-11.0224
ude	-11.0227
▁passing	-11.0231
▁आढळले	-11.0231
▁जीवनात	-11.0232
▁मना	-11.0232
▁touched	-11.0232
▁बदली	-11.0234
▁achieve	-11.024
▁license	-11.0241
▁send	-11.0247
▁Dam	-11.0248
र्या	-11.0249
न्य	-11.025
▁practices	-11.0251
▁description	-11.0253
▁अवैध	-11.0253
▁नव्हतं	-11.0253
▁सिंचन	-11.0253
▁juice	-11.0253
▁विठ्ठल	-11.0253
▁गिरीश	-11.0253
▁golf	-11.0253
▁northwest	-11.0254
▁रिक्त	-11.0254
▁1914	-11.0255
▁म्हणाल्या	-11.0255
▁वगळता	-11.0255
▁passage	-11.0255
▁Hills	-11.0256
▁colony	-11.0256
▁निवृत्त	-11.0256
▁testing	-11.0257
ांसोबत	-11.0258
▁वाढते	-11.0258
▁कामात	-11.0258
▁challenge	-11.0259
vy	-11.0259
▁अडचणीत	-11.026
्यां	-11.026
▁ग्रॅम	-11.026
▁Sho	-11.0261
All	-11.0264
▁Entertainment	-11.0264
09	-11.0266
▁engineer	-11.0266
▁teach	-11.0269
ae	-11.027
▁Walter	-11.0271
▁Sc	-11.0272
▁decade	-11.0274
▁registered	-11.0277
▁user	-11.0278
▁2002.	-11.0281
▁determine	-11.0282
▁ensure	-11.0283
▁पोल	-11.0285
▁व्यवस्थे	-11.0285
लाइन	-11.0287
vil	-11.029
▁finds	-11.0291
▁दार	-11.0293
▁shoot	-11.0295
▁फलंदाजी	-11.0297
▁leads	-11.03
▁खात्यात	-11.0301
▁निघ	-11.0304
▁deliver	-11.0306
▁landing	-11.0312
▁नियुक्त	-11.0313
pper	-11.0315
mount	-11.0316
▁talked	-11.0318
▁Gre	-11.032
▁शाखे	-11.0321
ace	-11.0321
▁retain	-11.0321
▁उडी	-11.0326
लेट	-11.0326
▁swam	-11.0327
▁वर्षभर	-11.0328
▁कपात	-11.0328
81	-11.0329
▁आयोगा	-11.0331
▁knee	-11.0331
▁अमर	-11.0334
▁पालिके	-11.0335
▁जामीन	-11.0337
ult	-11.0338
▁candidates	-11.0339
EC	-11.034
▁mistake	-11.034
▁Junior	-11.0341
▁Singapore	-11.0341
▁घाबर	-11.0341
▁संसर्ग	-11.0341
▁सुप्रीम	-11.0341
▁प्राचीन	-11.0341
▁Medical	-11.0341
▁त्वचा	-11.0341
राज्य	-11.0342
▁export	-11.0342
▁trace	-11.0342
▁counties	-11.0343
▁distributed	-11.0344
▁consumer	-11.0344
84	-11.0345
▁Bobby	-11.0345
गळ	-11.0348
९९	-11.0349
▁काढली	-11.0349
▁अभियंता	-11.0349
▁greatest	-11.0349
▁praised	-11.035
lus	-11.035
▁exit	-11.0354
ele	-11.0355
ava	-11.0356
▁guns	-11.0362
▁Lin	-11.0362
SS	-11.0364
nal	-11.0364
▁निम	-11.0367
▁Cy	-11.0368
▁NFL	-11.0369
ाप्रमाणे	-11.0371
▁निर	-11.0372
▁Sin	-11.0372
▁regularly	-11.0375
▁सोडव	-11.0376
▁Iran	-11.0376
57	-11.0377
▁statement	-11.0381
▁भवन	-11.0381
ular	-11.0383
lum	-11.0387
▁आजवर	-11.0388
▁factor	-11.0389
▁हेर	-11.039
inger	-11.0394
▁भक्त	-11.0395
awa	-11.0397
पती	-11.0403
निया	-11.0404
▁दाद	-11.0405
high	-11.0406
▁शनिवार	-11.0408
▁कसं	-11.0408
lid	-11.0409
▁उपोषण	-11.0411
▁खोल	-11.0412
▁अटी	-11.0413
▁apple	-11.0413
्ये	-11.0413
ायत	-11.0419
▁कै	-11.0421
▁22,	-11.0428
hara	-11.0429
▁opportunity	-11.0429
▁residing	-11.0429
▁कठोर	-11.0429
▁परस्पर	-11.0429
▁बातम्या	-11.0429
▁hello	-11.0429
▁नांदेड	-11.0429
▁प्रशिक्षक	-11.0429
▁rainbow	-11.0429
election	-11.043
▁architecture	-11.043
▁uncle	-11.0431
▁Gulf	-11.0431
▁poetry	-11.0432
ट्स	-11.0436
▁कांय	-11.0436
▁नावावर	-11.0437
▁माय	-11.0437
▁अधिकाऱ्यांना	-11.0437
gr	-11.0437
78	-11.044
▁नांव	-11.0441
▁interesting	-11.0442
▁Saturday	-11.0443
▁Va	-11.0444
▁जलद	-11.0445
▁package	-11.0446
▁शासनाच्या	-11.0447
uro	-11.0447
▁Member	-11.045
खु	-11.0452
▁केल्यामुळे	-11.0455
▁charges	-11.0457
▁rocks	-11.0458
▁Fin	-11.0464
▁Khan	-11.0467
▁grave	-11.0469
95	-11.047
▁Tan	-11.047
▁separated	-11.0471
▁Mul	-11.0475
ंगे	-11.0476
▁नाना	-11.048
▁discuss	-11.0481
▁साह	-11.0483
▁smell	-11.0483
▁प्रथमच	-11.0485
▁पुनर्	-11.0487
Se	-11.0488
Ne	-11.0489
▁entering	-11.049
91	-11.049
▁laughing	-11.0491
▁हाड	-11.0492
▁कृष्ण	-11.0493
▁Dis	-11.0497
uz	-11.0498
▁कारणे	-11.0501
▁dispute	-11.0507
▁Hal	-11.0507
▁लोह	-11.0513
▁mile	-11.0514
▁द्वारे	-11.0516
▁Athletic	-11.0518
▁Building	-11.0518
▁Hollywood	-11.0518
▁Norwegian	-11.0518
▁Wisconsin	-11.0518
▁argument	-11.0518
▁creative	-11.0518
▁helicopter	-11.0518
▁occupation	-11.0518
▁कित्येक	-11.0518
▁इच्छुक	-11.0518
▁निदर्शना	-11.0519
▁criticized	-11.0519
▁southwest	-11.052
▁criticism	-11.052
▁ob	-11.052
▁planning	-11.052
▁grounds	-11.052
▁दिस	-11.052
▁पार्किंग	-11.0522
▁शेतकऱ्यांनी	-11.0522
worth	-11.0523
type	-11.0523
▁त्याचप्रमाणे	-11.0523
▁Nick	-11.0525
rich	-11.0525
▁output	-11.0526
▁popularity	-11.0527
क्ट	-11.0528
यन	-11.0528
द्ध	-11.053
bridge	-11.053
▁माळ	-11.0532
ase	-11.0532
▁त्यातच	-11.0533
▁भरले	-11.0534
▁धरून	-11.0535
▁prepared	-11.0535
▁ABC	-11.0536
्ग	-11.0543
▁retained	-11.0544
▁lap	-11.0552
▁दहशतवाद	-11.0554
▁existed	-11.0558
▁dates	-11.0559
▁chi	-11.0559
6%	-11.0564
▁वातावरणात	-11.0568
▁कवी	-11.0568
▁पाहण्या	-11.0569
▁earth	-11.0569
▁express	-11.0572
▁प्रती	-11.0573
यक	-11.0579
▁वळण	-11.0582
▁शक	-11.0583
▁borough	-11.0583
संग	-11.0583
ulation	-11.0584
gre	-11.0585
▁ago	-11.0588
IT	-11.0591
▁premier	-11.0593
ुत	-11.0593
ुळ	-11.0594
▁तसं	-11.0599
▁दिवसभर	-11.06
rian	-11.0601
▁चर्चे	-11.0607
ाऊ	-11.0607
▁संभाजी	-11.0607
▁Houston	-11.0608
▁accompani	-11.0608
▁constituency	-11.0608
▁पुनर्वसन	-11.0608
▁प्रलंबित	-11.0608
▁रहिवासी	-11.0608
▁सविस्तर	-11.0608
▁श्रीमंत	-11.0609
▁queen	-11.0609
▁64,	-11.0609
▁Modern	-11.0609
▁soundtrack	-11.0609
▁महागाई	-11.0609
oph	-11.0609
▁Jerry	-11.0609
▁Silver	-11.061
▁अभि	-11.0611
▁translated	-11.0612
lot	-11.0612
▁poll	-11.0614
▁खराब	-11.0615
▁installed	-11.0616
▁दलित	-11.0616
▁Sar	-11.0617
▁नष्ट	-11.0618
▁जाणवत	-11.0619
काळ	-11.062
▁44,	-11.0621
▁belt	-11.0622
▁pe	-11.0624
▁शिवसेनेला	-11.0624
वला	-11.0625
र्द	-11.0629
▁आवक	-11.063
▁टाकला	-11.0631
महा	-11.0631
▁पक्षी	-11.0634
Li	-11.0634
▁shirt	-11.0635
ांपेक्षा	-11.0635
▁दहशतवाद्यां	-11.0637
path	-11.0637
▁Op	-11.0639
▁orders	-11.064
▁Indiana	-11.0643
ातर्फे	-11.0646
▁linked	-11.0648
▁देणारा	-11.0648
▁घडला	-11.065
पार	-11.065
णार्या	-11.0651
कारक	-11.0651
▁none	-11.0655
▁faced	-11.0658
▁त्यास	-11.0659
ोज	-11.066
व्हा	-11.0662
पू	-11.0662
ira	-11.0664
▁divisions	-11.067
▁coal	-11.067
▁Dean	-11.067
▁पावसा	-11.0671
▁चो	-11.0671
▁horses	-11.0672
fin	-11.0675
ott	-11.0676
▁soup	-11.0677
ened	-11.0682
▁पसंती	-11.0682
ल्ले	-11.0684
कुल	-11.0685
▁agree	-11.0687
▁constant	-11.069
▁Rod	-11.069
▁रहा	-11.0693
▁कं	-11.0695
▁Tro	-11.0697
▁costs	-11.0699
▁Hamilton	-11.0699
▁Lawrence	-11.0699
▁Orthodox	-11.0699
▁ceremony	-11.0699
▁identify	-11.0699
▁naughty	-11.0699
▁understood	-11.0699
▁violence	-11.0699
▁आत्मविश्वास	-11.0699
▁दागिने	-11.0699
▁Denmark	-11.07
▁ठाम	-11.07
▁Baseball	-11.07
▁कार्यवाही	-11.07
▁sugar	-11.07
▁Hor	-11.07
▁admitted	-11.07
▁landscape	-11.07
▁hidden	-11.07
▁cabinet	-11.07
▁Ottoman	-11.0701
▁relieved	-11.0701
▁Opera	-11.0702
▁1917	-11.0702
▁ठेवणे	-11.0702
▁Jake	-11.0703
▁चूक	-11.0705
▁instrumental	-11.0705
▁engaged	-11.0706
▁salt	-11.0706
▁अनंत	-11.0706
▁roughly	-11.0707
▁असावे	-11.0708
▁Forces	-11.0711
▁critic	-11.0717
▁Play	-11.0719
▁damaged	-11.0721
▁अडचण	-11.0724
meter	-11.0726
▁benefit	-11.0726
▁ओळखले	-11.0726
▁Philip	-11.0727
eau	-11.0729
▁Tr	-11.0729
वाड	-11.0732
▁Services	-11.0732
▁spell	-11.0736
▁व्हि	-11.0745
▁Hav	-11.0746
▁संघटने	-11.0747
▁नाराज	-11.0749
▁web	-11.0754
master	-11.0757
nia	-11.0758
▁मल	-11.0759
▁instruments	-11.0759
▁Your	-11.076
ali	-11.076
▁Des	-11.0762
Th	-11.0762
षधे	-11.0766
ोवप	-11.0767
mid	-11.0767
kes	-11.0769
वरही	-11.0771
▁tied	-11.0778
▁३२	-11.0781
▁बसव	-11.0782
▁५००	-11.0785
ule	-11.0786
तेने	-11.0787
▁दात	-11.0789
▁Lan	-11.079
▁legend	-11.0791
▁Den	-11.0791
▁विश्वचषक	-11.0791
▁Oregon	-11.0791
▁compilation	-11.0791
▁diameter	-11.0791
▁lonely	-11.0791
▁किरकोळ	-11.0791
▁प्रवीण	-11.0791
▁भीषण	-11.0791
▁woke	-11.0791
▁लंडन	-11.0791
▁विना	-11.0791
▁ठोस	-11.0791
▁Senator	-11.0792
▁खडसे	-11.0792
▁1932	-11.0793
▁1929	-11.0793
▁Morgan	-11.0793
▁sunny	-11.0794
▁वनडे	-11.0794
▁सत्कार	-11.0795
▁हवेत	-11.0797
▁restored	-11.0798
▁backyard	-11.0798
▁downtown	-11.0799
lip	-11.08
▁waves	-11.0801
▁accused	-11.0801
ami	-11.0802
▁उपनगर	-11.0803
▁वैशिष्ट्ये	-11.0803
▁Broadway	-11.0804
51	-11.0806
ंतल्यान	-11.0806
▁25,	-11.0807
▁टाकत	-11.0815
▁Final	-11.0816
▁विद्यापीठाच्या	-11.0817
ert	-11.0818
▁restaurant	-11.0819
▁अंगावर	-11.0822
ttle	-11.0822
SI	-11.0828
वंत	-11.083
atic	-11.0833
पथ	-11.0835
▁संदर्भ	-11.0835
▁charter	-11.0839
pl	-11.0839
▁Real	-11.0843
▁rec	-11.0846
▁Rob	-11.0846
rap	-11.0846
▁बॅ	-11.0848
gli	-11.085
▁भरत	-11.0852
MC	-11.0853
▁die	-11.0855
▁Iraq	-11.0859
zu	-11.086
▁Sil	-11.0861
▁येणारे	-11.0862
▁writers	-11.0863
▁Yo	-11.0866
▁संस्थां	-11.0867
▁Char	-11.0868
▁संमेलन	-11.0869
तले	-11.0869
▁फ्र	-11.0871
ain	-11.0871
▁rescue	-11.0872
▁capture	-11.0872
▁महाराष्ट्राच्या	-11.0874
▁Ven	-11.0875
▁कुणाला	-11.0876
from	-11.0878
▁knowing	-11.0878
▁proper	-11.0883
▁वृक्ष	-11.0884
पाठोपाठ	-11.0884
▁Puerto	-11.0884
▁Technology	-11.0884
▁ladder	-11.0884
▁veteran	-11.0884
▁Jesus	-11.0884
▁वसई	-11.0884
▁बिघड	-11.0884
▁वॉर्ड	-11.0884
▁boundary	-11.0884
▁नीट	-11.0884
▁Patrick	-11.0885
▁नुकत्याच	-11.0885
▁आदर	-11.0888
▁bath	-11.0889
▁membership	-11.0889
▁surrounded	-11.089
▁थंडी	-11.0891
▁Buck	-11.0892
▁reality	-11.0893
बद्ध	-11.0894
▁शेतकर्यां	-11.0894
Pa	-11.0895
▁ग्रामपंचायती	-11.0895
▁असेच	-11.0895
▁mono	-11.0898
▁liberal	-11.0898
▁स्मृती	-11.0901
▁Bad	-11.0902
▁तार	-11.0908
gent	-11.0908
▁hundred	-11.0914
▁Alan	-11.0915
▁लक्षणे	-11.0916
▁शकणार	-11.0917
73	-11.0919
61	-11.092
करण	-11.0921
▁ठेवत	-11.0921
03	-11.0929
▁solution	-11.0931
such	-11.0933
▁armed	-11.0934
take	-11.0934
▁पदक	-11.0937
टन	-11.0941
▁cloth	-11.0941
▁साधने	-11.0945
▁flows	-11.0948
▁construct	-11.0948
▁novels	-11.095
ुस	-11.0955
ark	-11.0956
▁faith	-11.0965
▁struggle	-11.0966
Lo	-11.0966
▁continuous	-11.0967
▁dam	-11.0967
▁trained	-11.0972
vat	-11.0973
ाळा	-11.0974
कांत	-11.0975
▁painter	-11.0975
▁बॉक्स	-11.0976
FA	-11.0977
▁concentration	-11.0977
▁witness	-11.0977
▁एमआयडीसी	-11.0977
▁लातूर	-11.0977
▁Squadron	-11.0977
▁गुगल	-11.0978
▁residential	-11.0978
▁squadron	-11.0978
▁टाटा	-11.0978
▁वाटचाल	-11.0978
dding	-11.0978
▁मासिक	-11.0978
▁brick	-11.0978
▁stating	-11.0979
▁बेड	-11.0979
▁आहात	-11.098
▁adaptation	-11.098
▁कोड	-11.0982
▁legs	-11.0983
▁bull	-11.0984
▁प्रदेशात	-11.0985
hon	-11.0985
1)	-11.0986
▁खड्डे	-11.0986
▁चिन्ह	-11.0988
▁peaceful	-11.0989
▁gathered	-11.0992
▁जाण्यासाठी	-11.0993
▁27,	-11.0995
▁आयोगाने	-11.0996
ासोबत	-11.0997
avi	-11.0998
▁instrument	-11.0998
ुकी	-11.1001
▁रेड	-11.1004
ांपासून	-11.1004
clo	-11.1004
▁Sen	-11.1004
▁मुलं	-11.1005
▁राहते	-11.1005
▁lu	-11.1006
ado	-11.1008
▁organisation	-11.1009
▁दुकाने	-11.1009
gger	-11.1011
bach	-11.1014
▁चळवळी	-11.1019
▁banks	-11.102
hand	-11.1021
his	-11.1022
▁tip	-11.1026
▁pack	-11.1026
▁Brothers	-11.1027
5,	-11.1027
▁मंत्रालया	-11.1028
▁त्यांच्याकडे	-11.1029
▁वस्ती	-11.1029
ल्याची	-11.103
३०	-11.1031
▁मॅच	-11.1031
▁तालुक्या	-11.1035
▁Las	-11.1035
tta	-11.1035
▁victims	-11.1036
▁क्रमांकावर	-11.1038
bul	-11.1041
▁राखीव	-11.1042
वाला	-11.1042
▁2012.	-11.1051
eb	-11.1051
▁मांडण्या	-11.1053
42	-11.106
▁hearing	-11.106
▁काड	-11.106
▁भात	-11.106
▁दो	-11.1063
▁Dor	-11.1065
▁अमरावती	-11.1072
▁Buddhist	-11.1072
▁liquid	-11.1072
▁opinion	-11.1072
▁reputation	-11.1072
▁उपायुक्त	-11.1072
▁न्यायाधीश	-11.1072
▁सतीश	-11.1072
▁crawl	-11.1072
▁आशिल्ल्या	-11.1072
▁cousin	-11.1072
▁घ्यायला	-11.1072
▁amateur	-11.1072
▁सक्ती	-11.1072
▁मर्यादित	-11.1072
▁नगराध्यक्ष	-11.1072
▁neck	-11.1072
▁म्हाडा	-11.1073
▁carrier	-11.1073
▁1913	-11.1074
▁capable	-11.1074
▁विद्यार्थ्या	-11.1075
▁Report	-11.1076
▁musicians	-11.1077
▁occasionally	-11.1077
▁ठर	-11.1077
▁खेड	-11.1077
▁otherwise	-11.1078
▁एकमेकांना	-11.1078
boat	-11.1078
▁Mau	-11.1078
▁कोणाला	-11.108
▁उभारण्या	-11.1081
▁स्त्रियां	-11.1081
▁मांडली	-11.1081
ाली	-11.1082
▁occasions	-11.1083
▁किंमती	-11.1084
▁अनेकांनी	-11.1084
▁emerged	-11.1087
▁हालचाली	-11.1087
▁अनेकांना	-11.1088
▁भार	-11.1089
▁Dream	-11.1089
gui	-11.109
सून	-11.1092
▁returns	-11.1093
▁नाय	-11.1093
▁credit	-11.1095
Com	-11.1096
▁pin	-11.1097
एन	-11.1098
▁साहेब	-11.11
▁healthy	-11.11
▁बड	-11.1102
ोव	-11.1102
▁engines	-11.1103
▁मैत्री	-11.1103
▁asking	-11.1105
▁म्हणतो	-11.1105
मुख	-11.1106
▁दादर	-11.1108
स्ट्र	-11.1109
▁Roll	-11.111
▁obtain	-11.1111
SD	-11.1112
▁शुद्ध	-11.1112
्यातील	-11.1113
ाविषयी	-11.1116
1.	-11.1117
▁grand	-11.1117
▁Design	-11.112
▁differences	-11.1121
▁dominat	-11.1121
▁Operation	-11.1122
▁boats	-11.1124
▁गुप्त	-11.1126
ांमधून	-11.113
nor	-11.1131
▁lasted	-11.1131
यू	-11.1134
▁collaborat	-11.1135
hor	-11.1136
2,	-11.1137
▁हस	-11.1137
▁spend	-11.1138
झी	-11.114
▁fired	-11.1141
▁adding	-11.1143
▁2000.	-11.1148
ोबा	-11.1149
▁डॉलर	-11.115
▁फेर	-11.1153
द्द	-11.1154
▁लुट	-11.1154
mun	-11.1155
▁Roger	-11.1157
र्म	-11.1157
▁47	-11.1157
called	-11.1159
वेल	-11.1159
▁Historic	-11.116
▁selling	-11.1165
▁scenes	-11.1165
▁Capital	-11.1167
▁Hockey	-11.1167
▁provincial	-11.1167
▁उल्लंघन	-11.1167
▁Dallas	-11.1167
▁भिन्न	-11.1167
▁Disney	-11.1167
▁Turkey	-11.1167
▁Fleet	-11.1167
▁अहमदनगर	-11.1167
▁स्टेट	-11.1168
▁महिना	-11.1169
▁गोळ्या	-11.1169
▁1925	-11.1169
▁labor	-11.117
▁Village	-11.117
▁DNA	-11.1171
▁coverage	-11.1171
elle	-11.1171
वणे	-11.1172
▁images	-11.1172
▁आणली	-11.1172
▁महिन्यांत	-11.1172
▁कायदे	-11.1173
▁Nova	-11.1173
▁अडक	-11.1174
▁wealthy	-11.1175
▁कापड	-11.1175
▁Charlie	-11.1175
▁सिंधुदुर्ग	-11.1176
▁उर्	-11.1176
▁Euro	-11.1177
▁pile	-11.1179
▁mental	-11.118
▁colonial	-11.1182
नाम	-11.1182
▁effectively	-11.1183
▁पोच	-11.1184
ico	-11.1185
▁longest	-11.1186
▁समजते	-11.1188
▁hiding	-11.1188
07	-11.119
▁publisher	-11.119
▁काप	-11.119
▁charged	-11.119
▁Ken	-11.1192
▁राहा	-11.1193
▁2016.	-11.1194
▁Sim	-11.1194
▁आठव	-11.1196
अप	-11.1196
▁intention	-11.1198
▁क्रिया	-11.1198
▁Bun	-11.12
▁ग्रह	-11.1206
body	-11.1206
संदर्भातील	-11.121
▁conventional	-11.1215
▁rivers	-11.1215
वू	-11.1218
तेचा	-11.1221
▁वीर	-11.1228
▁understanding	-11.123
▁convention	-11.123
▁गुरू	-11.1234
▁favor	-11.1235
▁मैदानावर	-11.1238
ब्रा	-11.1239
▁march	-11.124
▁धार	-11.1242
▁आग्रह	-11.1244
▁Mir	-11.1246
rit	-11.125
SE	-11.1253
▁Fre	-11.1254
▁आठवण	-11.1254
▁अशाच	-11.1255
▁bid	-11.1256
74	-11.1256
▁शेजारी	-11.1259
भाग	-11.1259
▁३४	-11.1261
▁Hy	-11.1262
▁Meanwhile	-11.1263
▁arrival	-11.1263
▁conservative	-11.1263
▁defensive	-11.1263
▁monument	-11.1263
▁अशक्य	-11.1263
▁व्यवस्थित	-11.1263
त्वरित	-11.1263
▁अचूक	-11.1263
▁एटीएम	-11.1263
▁तुझ्या	-11.1263
▁Railroad	-11.1263
▁२०१३	-11.1263
▁marry	-11.1263
▁riding	-11.1263
▁gender	-11.1263
▁Bruce	-11.1264
▁Diego	-11.1264
▁रामदास	-11.1264
▁Palace	-11.1264
▁रच	-11.1265
▁टाळण्यासाठी	-11.1265
▁गुन्ह्या	-11.1265
▁थोरात	-11.1267
ould	-11.1269
पल	-11.1271
▁दिल्यानंतर	-11.1272
▁moon	-11.1273
▁निवडणुकीसाठी	-11.1275
▁पालिकेने	-11.1276
ille	-11.1278
98	-11.1278
▁शाह	-11.1279
▁Ak	-11.128
cut	-11.1283
▁वाहून	-11.1284
▁मनो	-11.1285
▁Oak	-11.1285
ण्ट	-11.1287
ांग	-11.1289
▁वसुली	-11.129
▁विकासासाठी	-11.1291
▁suggests	-11.1291
▁secure	-11.1294
▁weekly	-11.1294
0%	-11.1296
zh	-11.1296
▁pig	-11.1296
▁mineral	-11.1298
▁मारून	-11.1299
ल्याचा	-11.1304
▁दाट	-11.1306
▁साठ	-11.1306
सू	-11.1307
िस्ट	-11.1307
▁tribe	-11.1307
▁घेण्यास	-11.1313
ेरी	-11.1316
Un	-11.1319
▁Mil	-11.132
▁seeing	-11.1326
▁Kin	-11.1329
nar	-11.1331
ुट	-11.1332
▁fashion	-11.1335
via	-11.1335
duction	-11.1337
▁नो	-11.1337
ोप	-11.134
3.	-11.1345
▁decline	-11.1348
▁interests	-11.1349
▁नंद	-11.135
▁requirements	-11.1351
▁der	-11.1353
▁spoke	-11.1353
▁जाळ	-11.1357
मुंबई	-11.1357
▁सुवर्ण	-11.136
▁Eventually	-11.136
▁Jordan	-11.136
▁Moscow	-11.136
▁Orchestra	-11.136
▁revenue	-11.136
▁throne	-11.136
▁खरोखर	-11.136
▁दरवाजा	-11.136
▁पराभूत	-11.136
▁मध्यवर्ती	-11.136
▁ट्रस्ट	-11.136
▁gear	-11.136
▁duties	-11.136
▁फलक	-11.136
▁naval	-11.1361
▁एकमेव	-11.1361
▁लांबी	-11.1362
▁underground	-11.1363
▁1890	-11.1363
ंतर	-11.1363
unk	-11.1364
▁nomination	-11.1364
▁sack	-11.1364
▁Mississippi	-11.1365
▁Upper	-11.1365
▁जयंती	-11.1365
▁Ste	-11.137
▁Sr	-11.137
▁निघून	-11.137
▁pour	-11.1375
▁प्रकाशित	-11.1375
▁logo	-11.1376
▁एखादी	-11.1377
▁assist	-11.1378
▁Em	-11.1378
िअर	-11.1378
सारखं	-11.1379
▁स्तर	-11.1387
▁पोर	-11.1388
दीप	-11.1388
▁भांडवल	-11.139
▁व्हा	-11.139
मत	-11.1392
ंकडे	-11.1393
▁मंदिरात	-11.1399
▁संख्ये	-11.14
▁hugs	-11.1401
▁बघ	-11.1402
ूक	-11.1409
▁ताका	-11.141
ste	-11.1412
▁Lou	-11.1412
▁push	-11.1413
rock	-11.1416
▁worth	-11.1418
%)	-11.1424
ँग	-11.1425
▁Lar	-11.1425
▁महोत्सव	-11.1428
ati	-11.1432
▁जिंक	-11.1434
▁Adams	-11.1435
▁घन	-11.1437
▁वाटले	-11.1439
▁rating	-11.1439
62	-11.144
▁Player	-11.144
हित	-11.144
tum	-11.1441
71	-11.1442
▁परदेशात	-11.1442
▁Hart	-11.1443
िओ	-11.1443
▁वाचक	-11.1447
ically	-11.1448
▁actual	-11.1449
▁न्या	-11.145
Di	-11.1451
▁dirt	-11.1451
▁श्रेय	-11.1451
una	-11.1452
▁interested	-11.1453
▁aspects	-11.1456
▁Bon	-11.1456
▁loyal	-11.1457
▁Stewart	-11.1458
▁chamber	-11.1458
▁controversial	-11.1458
▁अरविंद	-11.1458
▁डिझेल	-11.1458
▁तात्काळ	-11.1458
▁vector	-11.1458
▁smoke	-11.1458
▁Kansas	-11.1458
▁valuable	-11.1458
▁telephone	-11.1458
▁transmission	-11.1458
▁विशाल	-11.1458
▁committed	-11.1459
▁टप्पा	-11.1459
▁apartment	-11.146
▁विखे	-11.146
▁1922	-11.146
osis	-11.146
▁deer	-11.146
▁चौकार	-11.1461
▁secretary	-11.1461
▁Metro	-11.1462
▁brain	-11.1463
▁टि	-11.1463
FM	-11.1464
▁ठेव	-11.147
▁विचारला	-11.1471
▁texts	-11.1472
▁सगळ्यांत	-11.1473
▁discovery	-11.1473
▁fold	-11.1474
▁Lower	-11.1475
far	-11.1479
▁नायक	-11.1479
▁धावांची	-11.1481
▁17,	-11.1489
lead	-11.1489
▁beam	-11.149
mont	-11.149
▁Doctor	-11.1491
▁52	-11.1491
▁मोर	-11.1492
▁shooting	-11.1492
lay	-11.1493
▁suburb	-11.1496
▁bishop	-11.1499
Te	-11.1499
▁cloud	-11.1499
▁cookie	-11.1501
म्प	-11.1502
▁वर्षांचा	-11.1506
ंती	-11.1509
▁समाजाच्या	-11.1511
▁यात्रा	-11.1513
▁अधिकाऱ्या	-11.1517
चेर	-11.1524
rage	-11.1525
▁Helen	-11.1527
ानिमित्त	-11.1533
▁पहिल्यांदाच	-11.1542
▁authors	-11.1543
▁survive	-11.1545
▁Mas	-11.1546
▁comp	-11.1546
▁वाढदिवस	-11.1551
▁बाप	-11.1553
▁सिनेमात	-11.1553
▁concerns	-11.1557
▁Anthony	-11.1557
▁Security	-11.1557
▁absence	-11.1557
▁advice	-11.1557
▁convince	-11.1557
▁indigenous	-11.1557
▁subsidiary	-11.1557
▁Foreign	-11.1557
▁आकडा	-11.1557
▁Montreal	-11.1557
▁relief	-11.1557
ज्	-11.1558
▁codice	-11.1558
▁होम	-11.1558
▁Kra	-11.1558
▁बंड	-11.1559
▁अधिवेशन	-11.1559
▁percentage	-11.1559
▁remove	-11.156
▁arranged	-11.1561
▁1919	-11.1561
▁Independent	-11.1562
जण	-11.1563
▁शांतता	-11.1565
▁त्यांचं	-11.1565
▁प्रादेशिक	-11.1566
▁Kelly	-11.1566
▁बराच	-11.1569
▁पदावर	-11.1571
▁civilian	-11.1573
IN	-11.1574
▁बांधून	-11.1574
▁हलव	-11.1574
▁पहिल्यांदा	-11.1574
▁Who	-11.1574
▁दिसू	-11.1574
▁सुच	-11.1577
▁तें	-11.1579
▁Lane	-11.1583
१९	-11.1584
▁delivered	-11.1586
▁शिबिर	-11.1587
▁Les	-11.1589
aya	-11.1592
▁सेना	-11.1594
▁श्वास	-11.1597
▁संघाला	-11.1597
▁cor	-11.1598
▁hang	-11.1599
▁सोहळ्या	-11.16
▁खाल	-11.1602
▁मिळतो	-11.1603
▁अमेरिकेत	-11.1607
▁protein	-11.1611
क्क	-11.1612
olo	-11.1612
aged	-11.1615
▁प्रेक्षक	-11.1615
▁यांच्याकडून	-11.1616
▁पाठविण्या	-11.1619
▁आपल्याकडे	-11.1622
▁UN	-11.1623
परि	-11.1623
बाहेर	-11.1626
ोस	-11.1628
▁दिसतो	-11.1631
▁विधानसभेत	-11.1631
▁अभाव	-11.1634
▁मुलीला	-11.1636
▁सरकारचा	-11.1637
▁documents	-11.1638
▁जड	-11.1639
▁लोखंड	-11.164
▁अस्तित्वात	-11.164
eri	-11.1642
▁viewed	-11.1642
हान	-11.1646
▁आर्ट	-11.1647
▁परवाना	-11.1648
77	-11.1649
wer	-11.1652
▁differ	-11.1656
Good	-11.1656
▁basket	-11.1657
▁हेतू	-11.1657
▁Cathedral	-11.1657
▁Convention	-11.1657
▁satellite	-11.1657
▁अडथळा	-11.1657
▁प्राध्यापक	-11.1657
घरगुती	-11.1657
▁empty	-11.1657
▁अल्पवयीन	-11.1657
▁भूखंड	-11.1657
▁बहुजन	-11.1657
▁disorder	-11.1658
▁शिखर	-11.1658
▁शारीर	-11.1658
▁वादग्रस्त	-11.1658
▁Review	-11.1659
▁तरूण	-11.1659
▁आकाश	-11.1659
▁completion	-11.1659
▁विधी	-11.1659
▁domain	-11.166
▁सुटका	-11.166
mag	-11.1661
▁plus	-11.1661
▁devices	-11.1661
▁अर्जुन	-11.1664
▁components	-11.1664
▁apply	-11.1666
▁Anti	-11.1669
ग्न	-11.1672
गम	-11.1675
नामा	-11.1675
▁Villa	-11.1677
▁आयुक्तांनी	-11.1678
▁missing	-11.168
▁९०	-11.1682
▁hosts	-11.1685
▁घडल्या	-11.1686
lov	-11.1689
▁काळ्या	-11.169
▁soap	-11.1691
▁वाय	-11.1691
sville	-11.1691
02	-11.1696
▁filmed	-11.1698
▁Knight	-11.1699
69	-11.17
▁priest	-11.1702
▁गमाव	-11.1703
▁studying	-11.1704
▁Canal	-11.1704
▁सांगतो	-11.1705
▁मोहिमे	-11.1705
▁Sciences	-11.1708
▁FA	-11.1708
▁Israeli	-11.171
▁subjects	-11.1712
▁सूर	-11.1713
▁profit	-11.1717
▁बेट	-11.1719
▁टिक	-11.1721
MP	-11.1721
El	-11.1725
▁साम	-11.1727
pel	-11.1729
जू	-11.1731
▁markets	-11.1733
ddle	-11.1738
▁greatly	-11.1739
▁degrees	-11.1742
fort	-11.1747
▁organize	-11.1748
▁rapid	-11.1749
ori	-11.175
ाळे	-11.175
▁Reform	-11.1751
िं	-11.1754
▁Gall	-11.1756
view	-11.1757
season	-11.1758
▁Cemetery	-11.1758
▁Metropolitan	-11.1758
▁crab	-11.1758
▁intellectual	-11.1758
▁jurisdiction	-11.1758
▁legislation	-11.1758
▁modified	-11.1758
▁offensive	-11.1758
▁अभिनंदन	-11.1758
▁वार्षिक	-11.1758
▁injured	-11.1758
▁shining	-11.1758
▁depth	-11.1758
▁एकदम	-11.1758
▁crystal	-11.1758
▁बहुमत	-11.1758
▁debt	-11.1759
▁rugby	-11.1759
▁संसार	-11.1759
▁सत्तेत	-11.1759
▁Trust	-11.1759
▁गार	-11.176
▁details	-11.1761
▁जपान	-11.1762
▁paw	-11.1762
▁महादेव	-11.1762
ways	-11.1763
▁(15	-11.1763
▁users	-11.1764
▁वीस	-11.1764
▁सहकार	-11.1765
▁collaboration	-11.1766
▁अलीकडे	-11.1767
▁काँग्रेसला	-11.1767
▁guitarist	-11.1768
▁Pur	-11.1768
लाईन	-11.1768
▁थोडी	-11.1768
▁apart	-11.1768
▁Gate	-11.177
ility	-11.1772
▁आण	-11.1772
▁मासे	-11.1772
Wa	-11.1774
▁experiment	-11.1774
▁Family	-11.1774
▁coastal	-11.1776
▁आणला	-11.1777
▁वाजव	-11.1777
▁गोंय	-11.1777
▁लढतीत	-11.1779
वस	-11.1782
▁परिषदेचे	-11.1784
▁बघत	-11.1786
▁NBC	-11.1786
▁virtual	-11.1789
▁twin	-11.1789
▁नागरिकांच्या	-11.1792
▁Iron	-11.1796
▁mu	-11.1797
▁Muslims	-11.1798
वेळ	-11.18
▁बळ	-11.18
▁कंपनीचे	-11.1804
▁vessels	-11.1804
▁होणारा	-11.1805
pot	-11.1805
▁weapon	-11.1805
▁तोच	-11.1809
▁जप	-11.1809
पुरा	-11.1809
▁मिळतात	-11.181
▁handed	-11.1811
▁मंच	-11.1812
▁Run	-11.1812
▁पाण्याच्या	-11.1812
▁लोकांची	-11.1814
▁सुचव	-11.182
AT	-11.1822
▁SR	-11.1824
▁Dal	-11.1827
ben	-11.1828
box	-11.1828
AP	-11.1829
▁coin	-11.183
▁व्यतिरिक्त	-11.1832
▁anchor	-11.1841
▁stem	-11.1845
▁कड	-11.185
sson	-11.1852
table	-11.186
▁destruction	-11.186
▁puzzle	-11.186
▁universities	-11.186
▁अव्वल	-11.186
▁आकर्षण	-11.186
▁टिळक	-11.186
▁माझं	-11.186
▁संतप्त	-11.186
▁Welsh	-11.186
▁venture	-11.186
▁मेंदू	-11.186
▁knight	-11.186
▁perhaps	-11.186
▁comprise	-11.186
▁सल्लागार	-11.1861
▁Bernard	-11.1861
▁theories	-11.1862
game	-11.1862
▁आगमन	-11.1862
▁प्रशासनाकडून	-11.1862
▁Yorkshire	-11.1863
▁1916	-11.1863
▁alien	-11.1864
▁pl	-11.1864
▁Miami	-11.1865
ांतल्या	-11.1867
▁competitive	-11.1868
▁Alice	-11.1869
▁राजीव	-11.187
Na	-11.187
▁साध्य	-11.1871
▁expression	-11.1871
▁educated	-11.1873
▁heads	-11.1873
▁Crown	-11.1873
▁wash	-11.1876
late	-11.1878
▁distinguished	-11.1878
▁लाट	-11.1881
▁शब्दांत	-11.1881
ण्ड	-11.1882
▁कोटींची	-11.1884
fish	-11.1886
▁७५	-11.1887
▁51	-11.1887
idae	-11.1887
▁Eric	-11.1889
lt	-11.189
▁visible	-11.1891
▁Mun	-11.1892
▁Para	-11.1896
So	-11.1899
▁par	-11.19
▁पॉ	-11.19
▁lit	-11.1907
▁Trail	-11.1908
▁difference	-11.191
निक	-11.1911
▁दरात	-11.1911
rop	-11.1914
ाऱ्या	-11.1914
यत	-11.1915
▁बालक	-11.1917
ello	-11.1918
▁clouds	-11.192
▁गोळीबार	-11.192
▁epi	-11.192
▁Bat	-11.1927
▁Mrs	-11.1929
▁घसर	-11.193
▁select	-11.193
▁निक	-11.1932
gin	-11.1933
▁blow	-11.1935
cover	-11.1936
▁ब्ल	-11.1937
▁०	-11.1943
▁२००	-11.1944
▁वाहत	-11.1945
▁courts	-11.1946
▁अवस्थेत	-11.1947
▁Mayor	-11.1947
्यांचे	-11.1953
मर	-11.1954
range	-11.1957
▁Pr	-11.196
▁Islam	-11.1961
2.	-11.1962
▁Oklahoma	-11.1963
▁Thompson	-11.1963
▁bronze	-11.1963
▁sufficient	-11.1963
▁trading	-11.1963
▁उदयनराजे	-11.1963
▁निरीक्षण	-11.1963
▁bucket	-11.1963
▁error	-11.1963
▁prompt	-11.1963
▁छायाचित्र	-11.1963
▁ruling	-11.1963
▁missile	-11.1964
▁बर्फ	-11.1964
▁वृत्तपत्र	-11.1964
▁clay	-11.1964
▁करण्यापूर्वी	-11.1965
▁rebuilt	-11.1965
▁spotted	-11.1965
▁1921	-11.1966
▁Franklin	-11.1966
▁व्हावा	-11.1966
▁Tower	-11.1966
▁dating	-11.1967
Come	-11.1969
▁Hard	-11.1969
▁जोरावर	-11.1969
▁अपक्ष	-11.1969
▁सरळ	-11.1971
▁पारंपरिक	-11.1972
▁begun	-11.1974
▁31,	-11.1974
▁गॅ	-11.1974
book	-11.1976
RS	-11.1976
RT	-11.1979
▁डॉक्टरांनी	-11.198
▁लढव	-11.198
▁sponsored	-11.1981
lane	-11.1982
zen	-11.1983
▁notice	-11.1985
▁formally	-11.1985
▁गावा	-11.1988
▁Plan	-11.1988
ega	-11.1988
▁NBA	-11.199
▁Jos	-11.1991
▁dogs	-11.1995
▁शास्त्रज्ञ	-11.1996
▁डोळ्यां	-11.1997
▁गप्पा	-11.2001
▁rolled	-11.2004
▁abuse	-11.2006
▁Brook	-11.2007
▁Mah	-11.2008
▁et	-11.2009
▁नेमके	-11.201
बंध	-11.2011
▁Mari	-11.2011
▁वयाच्या	-11.2013
▁रस्त्याच्या	-11.2014
▁पक्षाला	-11.2015
burn	-11.2015
▁communication	-11.2015
▁Mann	-11.2016
▁fat	-11.2018
ection	-11.2023
▁गोव्या	-11.2026
▁styles	-11.2027
▁दिसणार	-11.2028
Qu	-11.2031
▁वर्सा	-11.2031
श्या	-11.2032
ोट	-11.2034
▁जुळ	-11.2034
▁angle	-11.2039
▁convert	-11.2042
▁Boys	-11.2044
▁मान्यवर	-11.2047
▁सोयी	-11.2052
▁schedule	-11.2056
▁talking	-11.2056
bon	-11.2057
ातल्या	-11.2058
▁सौ	-11.2059
▁30,	-11.2059
▁फॉर	-11.2061
▁सावर	-11.2061
assi	-11.2062
▁400	-11.2063
▁भाडे	-11.2064
▁Mid	-11.2064
▁Harris	-11.2065
▁Taiwan	-11.2067
▁मांजर	-11.2067
▁Broadcasting	-11.2067
▁Cricket	-11.2067
▁atmosphere	-11.2067
▁ordinary	-11.2067
▁strategy	-11.2067
▁केजरीवाल	-11.2067
▁तुकाराम	-11.2067
▁दिग्गज	-11.2067
▁रकमे	-11.2067
▁लक्ष्मण	-11.2067
▁Kennedy	-11.2067
▁Until	-11.2067
▁changing	-11.2067
▁soccer	-11.2067
▁responsibility	-11.2067
▁agency	-11.2067
▁Sometimes	-11.2067
▁scholarship	-11.2068
▁patrol	-11.2068
▁किल्ल्या	-11.2068
▁spray	-11.2068
▁crack	-11.2068
▁somewhat	-11.2069
▁considerable	-11.207
▁Labor	-11.207
आणि	-11.2071
▁transportation	-11.2071
▁स्	-11.2072
▁characterized	-11.2072
मधल्या	-11.2073
▁Base	-11.2075
eh	-11.2078
▁एवढा	-11.2079
ँड	-11.2079
▁parliament	-11.2082
▁manner	-11.2083
▁Comp	-11.2083
▁tightly	-11.2085
met	-11.2087
▁दोघेही	-11.2089
▁मिळवले	-11.209
fu	-11.209
▁ठेवण्यासाठी	-11.2091
▁ज्यांना	-11.2094
rry	-11.2095
▁म्हा	-11.2096
ites	-11.2097
▁कळत	-11.21
▁Burn	-11.2101
▁उत्	-11.2101
▁अड	-11.2102
▁त्याच्यावर	-11.2104
▁क्षेत्रा	-11.2104
▁काका	-11.2106
▁Pra	-11.2107
-3	-11.2108
▁recordings	-11.2109
▁2013.	-11.2114
▁rival	-11.2119
ोद	-11.2122
▁exhibition	-11.2123
97	-11.2123
▁उडव	-11.2126
ech	-11.2127
night	-11.2128
▁seed	-11.2129
▁pole	-11.2131
etic	-11.2134
▁मैदानात	-11.2135
▁Wei	-11.2139
▁ग्राम	-11.2141
▁बरं	-11.2144
्तर	-11.2144
▁मारण्या	-11.2145
rag	-11.2149
▁सत्ते	-11.215
ender	-11.215
▁सरकारची	-11.2155
▁Monte	-11.2155
▁Victor	-11.2161
ईन	-11.2161
▁समन्वय	-11.2165
▁भाविक	-11.2169
▁नेटवर्क	-11.217
▁Wall	-11.2172
▁regime	-11.2172
▁Reserve	-11.2173
▁involving	-11.2173
▁widespread	-11.2173
▁बेकायदा	-11.2173
▁स्नायू	-11.2173
▁तारीख	-11.2173
▁sharing	-11.2173
▁Iowa	-11.2173
▁लिलाव	-11.2173
▁दुहेरी	-11.2173
▁क्षमते	-11.2173
▁व्यसन	-11.2173
▁external	-11.2173
▁उमेश	-11.2173
▁appointment	-11.2173
▁मास्टर	-11.2174
▁wedding	-11.2175
▁एवढी	-11.218
▁threatened	-11.2182
▁equipped	-11.2183
▁rapidly	-11.2183
▁Chile	-11.2184
load	-11.2185
▁बुक	-11.2187
▁पॅ	-11.2188
▁discussion	-11.2188
मार्ग	-11.2188
▁हल	-11.2189
▁हॉल	-11.2192
▁ठरते	-11.2201
▁विजे	-11.2202
under	-11.2206
itation	-11.2207
▁रम	-11.2209
खळ	-11.221
▁मिळवला	-11.2211
▁Bull	-11.2221
▁गेट	-11.2224
▁मध	-11.223
ware	-11.2233
sburg	-11.2237
mir	-11.2238
स्थळ	-11.224
post	-11.2243
कृती	-11.2244
▁hundreds	-11.2245
मंत्र	-11.2245
▁Are	-11.2247
oi	-11.2248
oper	-11.225
▁broadcasting	-11.2251
णूक	-11.2251
sign	-11.2251
▁exists	-11.2254
▁टोला	-11.2261
▁कामासाठी	-11.2268
▁आदि	-11.2269
▁supporters	-11.2271
वरच	-11.2273
▁goods	-11.2273
वाई	-11.2278
▁Front	-11.2279
▁Colorado	-11.2279
▁विद्यार्थिनी	-11.2279
▁Alabama	-11.2279
▁Military	-11.2279
▁defence	-11.2279
▁portrait	-11.2279
▁medium	-11.2279
▁मेडिकल	-11.2279
▁हिंसाचार	-11.2279
▁समीर	-11.2279
▁Richmond	-11.2279
पट्टी	-11.2279
▁spiritual	-11.2279
▁Gordon	-11.228
▁spoon	-11.228
▁निकष	-11.228
▁plain	-11.228
▁टोळी	-11.228
▁मुखेल	-11.228
▁Singh	-11.2281
▁debuted	-11.2281
▁cited	-11.2282
▁लढाई	-11.2283
▁metres	-11.2283
▁गाणी	-11.2284
रकर	-11.2284
▁टेस्ट	-11.2285
foot	-11.2286
▁मेहता	-11.2286
▁McG	-11.2286
▁spoken	-11.2286
▁Kha	-11.2288
▁माफ	-11.2288
्रमोद	-11.2289
▁mi	-11.229
▁recommended	-11.229
▁locomotives	-11.229
▁Bern	-11.229
ched	-11.2292
▁संघटनेने	-11.2294
▁घालव	-11.2295
▁ratio	-11.2295
▁Jud	-11.2297
▁आरोपीं	-11.2298
▁जणू	-11.2299
▁दिसले	-11.23
▁सदस्यांनी	-11.2303
▁रुग्णांना	-11.2305
▁सर्वांनी	-11.2306
▁keeping	-11.2308
▁पुरावे	-11.2309
सिस	-11.2311
▁concerts	-11.2311
▁गांव	-11.2313
ाविरोधात	-11.2313
▁DC	-11.2314
मध	-11.2314
▁लागलं	-11.2318
▁व्हड	-11.2318
tory	-11.2319
▁Key	-11.232
IC	-11.2325
▁पुढ	-11.2329
▁signs	-11.2335
SU	-11.2335
▁Trade	-11.2335
▁exercise	-11.2337
▁Spring	-11.2338
▁vessel	-11.2338
▁technique	-11.2338
▁आयात	-11.2339
osa	-11.2339
▁Karl	-11.234
▁Fund	-11.2347
▁पहिल्याच	-11.2349
नुकताच	-11.235
▁घडत	-11.2352
▁सुरवात	-11.2352
race	-11.2353
▁खि	-11.2354
▁Pas	-11.2355
▁संपत	-11.2359
▁डोक्यावर	-11.2359
▁हटव	-11.236
rank	-11.2361
formed	-11.2362
▁३६	-11.2363
▁appearing	-11.2365
▁यापैकी	-11.2366
▁mm	-11.2368
▁सरकारचे	-11.2372
▁Chan	-11.2372
▁signing	-11.2373
ख्यात	-11.2376
TM	-11.2379
dies	-11.2379
गती	-11.2386
▁Matthew	-11.2387
▁Magazine	-11.2387
▁Studies	-11.2387
▁appropriate	-11.2387
▁illegal	-11.2387
▁muscle	-11.2387
▁picnic	-11.2387
▁आकर्षित	-11.2387
▁तिन्ही	-11.2387
▁उपरांत	-11.2387
▁शस्त्रक्रिया	-11.2387
▁बॉम्ब	-11.2387
▁पेन्शन	-11.2387
▁assault	-11.2387
▁CBS	-11.2387
▁वसूल	-11.2387
▁Internet	-11.2387
▁Alliance	-11.2387
▁जिथे	-11.2387
▁रूपये	-11.2387
▁assistance	-11.2387
▁ढकल	-11.2388
▁1931	-11.2388
logical	-11.2389
▁mining	-11.2389
▁remainder	-11.2389
▁chest	-11.2389
▁आल्याची	-11.239
▁1910	-11.239
▁1880	-11.2391
▁तुमची	-11.2391
▁नाबाद	-11.2392
▁Sammy	-11.2392
▁charts	-11.2392
▁दस्त	-11.2393
विषयक	-11.2393
▁Cook	-11.2393
▁rice	-11.2393
▁prop	-11.2394
▁cash	-11.2394
▁interaction	-11.2396
▁कंत्राटदार	-11.2396
▁वैभव	-11.2397
▁साधून	-11.2397
▁fictional	-11.2397
▁executed	-11.2398
▁ow	-11.2403
▁frequency	-11.2403
▁प्रस्तावित	-11.2405
Lily	-11.2405
▁retail	-11.2407
▁ताज	-11.2408
▁Five	-11.2409
मती	-11.2409
own	-11.241
▁Dia	-11.2411
▁जगभरात	-11.2412
▁ducks	-11.2414
▁experienced	-11.2416
▁experimental	-11.2419
▁Barn	-11.242
yer	-11.2421
▁Within	-11.2423
verb	-11.2423
▁मंडळाच्या	-11.2427
ल्लो	-11.2427
▁institution	-11.2429
▁मुळे	-11.2429
न्ड	-11.243
▁माफी	-11.2435
▁त्यांच्याकडून	-11.2436
state	-11.2437
ंगी	-11.2438
▁55	-11.2438
चित	-11.2442
rack	-11.2443
get	-11.2447
▁loves	-11.2447
▁finger	-11.2447
▁Cas	-11.2449
▁पाठी	-11.2449
ook	-11.245
try	-11.2452
▁वेद	-11.2452
▁मनोरंज	-11.2455
▁Penn	-11.2463
▁pioneer	-11.247
▁Heart	-11.2474
▁सुरूच	-11.2474
▁audio	-11.2475
city	-11.2477
▁shell	-11.2477
▁Gun	-11.2477
▁तरच	-11.2478
ंबा	-11.2478
दू	-11.2479
▁Hand	-11.2481
▁2001.	-11.2484
▁frequent	-11.2485
dro	-11.2488
▁eleven	-11.2488
▁सगळी	-11.2493
▁tube	-11.2494
▁Cleveland	-11.2495
▁category	-11.2495
▁celebration	-11.2495
▁controversy	-11.2495
▁faculty	-11.2495
▁mirror	-11.2495
▁आकर्षक	-11.2495
▁तैनात	-11.2495
▁संवेदनशील	-11.2495
▁Heritage	-11.2495
▁Nelson	-11.2495
▁Russell	-11.2495
▁शहीद	-11.2495
▁माधव	-11.2495
▁asleep	-11.2495
▁comparison	-11.2495
▁strict	-11.2495
▁shelter	-11.2495
▁Murray	-11.2496
▁ममता	-11.2496
▁Stanley	-11.2496
▁प्रदीप	-11.2497
▁Tele	-11.2497
▁guilty	-11.2497
▁accounts	-11.2498
▁पूण	-11.2499
▁मिश्रण	-11.2499
▁Brazilian	-11.2499
▁तुमचा	-11.25
▁काढणे	-11.25
▁युरोप	-11.25
▁lucky	-11.2501
▁wooden	-11.2501
lac	-11.2505
pac	-11.2506
wise	-11.2506
▁paintings	-11.2507
▁शाहू	-11.2507
▁Hawk	-11.2509
▁ill	-11.251
anna	-11.251
▁losses	-11.2513
▁persons	-11.2513
▁orbit	-11.2513
▁normally	-11.2517
पासूनच	-11.2518
gie	-11.2518
▁attracted	-11.2518
िकल	-11.2519
▁ड्र	-11.2519
▁भान	-11.252
anger	-11.2521
▁collect	-11.2521
▁Pete	-11.2522
tell	-11.2523
▁अर्थाने	-11.2525
▁संवर्धन	-11.2527
▁कोठडी	-11.2531
▁Steel	-11.2533
ranging	-11.2539
▁define	-11.2543
ातही	-11.2543
▁भारताचे	-11.2546
▁Has	-11.2546
▁पोहोचले	-11.2548
went	-11.2552
▁immigrants	-11.2557
▁गायक	-11.2559
▁Il	-11.2561
▁राहिल्या	-11.2564
▁fl	-11.2566
oe	-11.257
▁1000	-11.2571
▁Farm	-11.2572
▁dual	-11.2573
-20	-11.2574
creasingly	-11.2581
▁apples	-11.2581
▁Pal	-11.2582
▁पडतो	-11.2583
▁channels	-11.2584
▁प्रांत	-11.2584
▁Ran	-11.2584
US	-11.2586
▁कृ	-11.2587
gro	-11.2589
▁parliamentar	-11.259
▁com	-11.2592
▁जाणे	-11.2592
▁Dog	-11.2593
▁सीबीआय	-11.2594
▁अंत	-11.2595
५०	-11.2601
▁meal	-11.2602
▁pursue	-11.2603
eli	-11.2603
▁Abbey	-11.2605
▁Economic	-11.2605
▁Fluffy	-11.2605
▁Liverpool	-11.2605
▁Protestant	-11.2605
▁calendar	-11.2605
▁competing	-11.2605
▁infrastructure	-11.2605
▁initiative	-11.2605
▁mysterious	-11.2605
▁ritual	-11.2605
▁पृष्ठभाग	-11.2605
▁crisis	-11.2605
▁superior	-11.2605
▁terminal	-11.2605
▁tissue	-11.2605
▁Originally	-11.2605
▁कांद्या	-11.2605
▁क्रिकेटपटू	-11.2606
▁calm	-11.2606
▁विलास	-11.2606
१०	-11.2606
▁तावडे	-11.2607
▁तोडगा	-11.2607
▁असाच	-11.2607
▁gang	-11.2609
▁बिन	-11.2609
▁Emily	-11.2609
▁warning	-11.2609
▁उभ्या	-11.261
▁महाराजां	-11.2611
▁exposed	-11.2615
▁Children	-11.2615
▁बॉस	-11.2616
▁धोक्यात	-11.2617
▁मोकळा	-11.2619
स्प	-11.2622
▁दृष्टी	-11.2622
▁Turkish	-11.2622
▁vocals	-11.2622
▁जुने	-11.2623
गांव	-11.2623
▁तुकडे	-11.2625
्यांचा	-11.2626
▁महिलांच्या	-11.2628
▁कामा	-11.2629
▁Ana	-11.263
▁meters	-11.2631
uma	-11.2631
Ta	-11.2635
अभावी	-11.2637
ologist	-11.2638
▁गेलं	-11.2639
▁contributions	-11.264
नेही	-11.2641
▁NY	-11.2641
▁moves	-11.2642
▁Hans	-11.2642
▁समर्थ	-11.2643
ळकर	-11.2646
▁Leon	-11.2648
▁treated	-11.2648
▁यांचं	-11.2653
▁teachers	-11.2656
▁Victorian	-11.2658
▁साप	-11.2662
▁movements	-11.2663
▁चळवळ	-11.2667
▁पाप	-11.267
CO	-11.2673
▁soldier	-11.2675
ssel	-11.2676
▁बांद	-11.2677
च्यो	-11.268
▁Kings	-11.2682
▁भूमी	-11.2686
▁उल	-11.2687
▁kiss	-11.2693
ृत	-11.2694
▁delay	-11.2695
पक्ष	-11.2701
ांसमोर	-11.2703
▁celebrate	-11.2705
▁cute	-11.2705
uring	-11.2706
▁Falls	-11.2709
▁hydro	-11.2711
▁फ्रान्स	-11.2714
▁नाका	-11.2715
▁borders	-11.2716
▁Arizona	-11.2716
▁Belgium	-11.2716
▁attributed	-11.2716
▁conclusion	-11.2716
▁fragment	-11.2716
▁influential	-11.2716
▁nervous	-11.2716
▁practical	-11.2716
▁procedure	-11.2716
▁remote	-11.2716
▁surviving	-11.2716
▁ब्रिटिश	-11.2716
▁extent	-11.2716
▁सॉफ्टवेअर	-11.2716
▁truth	-11.2716
▁drummer	-11.2717
▁कमाई	-11.2717
▁ओपन	-11.2717
▁लक्षणीय	-11.2717
▁Teddy	-11.2717
▁ज्ञानेश्वर	-11.2717
▁बॅटरी	-11.2717
▁oven	-11.2717
▁loop	-11.2718
▁Peace	-11.2718
▁1906	-11.2718
▁झालो	-11.2718
▁वेगवेगळे	-11.2718
▁पक्षप्रमुख	-11.2718
▁Orange	-11.2718
▁wagon	-11.2719
▁objective	-11.2719
▁Winter	-11.2719
▁gets	-11.272
▁सावरकर	-11.272
▁आजी	-11.2722
▁माणसां	-11.2723
▁Studios	-11.2726
▁Drive	-11.2727
▁encouraged	-11.2727
▁वर्षापासून	-11.2729
away	-11.2731
▁rates	-11.2731
▁हाल	-11.2732
ॅक	-11.2732
रोड	-11.2732
▁150	-11.2733
fic	-11.2733
▁आठवले	-11.2734
▁चिन्हे	-11.2737
▁खार	-11.2737
मुल	-11.2739
▁Kr	-11.2741
direct	-11.2744
▁आयोग	-11.2745
Hey	-11.2747
ुप	-11.2748
▁मावळ	-11.2748
▁processes	-11.2748
▁wake	-11.275
घे	-11.275
▁turning	-11.2753
▁operational	-11.2754
पटू	-11.2754
▁seventh	-11.2757
राह	-11.2758
▁Carr	-11.2759
pet	-11.2759
▁माज	-11.2759
▁सामन्यां	-11.2763
aire	-11.2765
▁पावसाळ्यात	-11.2766
▁meat	-11.277
▁लढा	-11.2777
वाले	-11.278
बाजी	-11.2781
idi	-11.2781
AM	-11.2782
▁jet	-11.2784
▁2017.	-11.2784
▁clan	-11.2785
▁aim	-11.2787
dapted	-11.2789
ID	-11.2791
▁Kal	-11.2792
▁एफ	-11.2793
▁रोम	-11.2794
▁Brad	-11.2795
▁footballer	-11.2796
▁धारण	-11.2797
डू	-11.2802
▁acted	-11.2802
▁correct	-11.2804
▁Well	-11.2804
▁shout	-11.2805
▁करण	-11.2811
लिन	-11.2813
▁वाह	-11.2815
later	-11.2817
hin	-11.2818
▁(16	-11.2819
▁2015.	-11.282
▁nations	-11.2824
▁Week	-11.2824
▁favour	-11.2826
▁६५	-11.2827
▁squad	-11.2828
जर	-11.2828
▁Detroit	-11.2829
▁एक्स्प्रेस	-11.2829
▁श्रीलंके	-11.2829
▁Baltimore	-11.2829
▁Margaret	-11.2829
▁escort	-11.2829
▁meadow	-11.2829
▁suicide	-11.2829
▁पाठपुरावा	-11.2829
▁रिलायन्स	-11.2829
▁injuries	-11.2829
▁बिल्डर	-11.2829
▁maintenance	-11.2829
▁predominant	-11.2829
▁Agency	-11.2829
▁भाष्य	-11.2829
▁मार्गदर्शनाखाली	-11.2829
▁desert	-11.2829
▁अभिमान	-11.2829
▁Dublin	-11.2829
▁Graham	-11.2831
CS	-11.2831
▁अमोल	-11.2831
▁merger	-11.2832
▁कष्ट	-11.2832
▁couch	-11.2832
क्शन	-11.2833
▁outdoor	-11.2833
corp	-11.2833
free	-11.2833
4.	-11.2834
उभारण्यात	-11.2835
▁Ryan	-11.2835
▁पाहण्यासाठी	-11.2837
▁stable	-11.2837
▁ski	-11.2838
▁Mission	-11.2838
▁fallen	-11.2838
▁तुमचे	-11.2839
▁covering	-11.284
▁बांधले	-11.2841
बाग	-11.2844
▁Baker	-11.2844
▁जहाज	-11.2844
▁देशांमध्ये	-11.2846
▁treaty	-11.2846
oni	-11.2847
▁कुटुंबातील	-11.2848
iti	-11.2848
▁button	-11.2852
▁Affairs	-11.2853
▁शेतात	-11.2855
hol	-11.2855
▁मजा	-11.2855
▁Journal	-11.2856
▁कॅमेरा	-11.2856
▁जळ	-11.2857
▁ठरवले	-11.2857
▁locally	-11.2857
PD	-11.2859
▁गुंड	-11.286
▁असती	-11.286
rig	-11.286
▁सप	-11.2862
mmer	-11.2863
ंद्र	-11.2868
▁sur	-11.2869
▁1999.	-11.287
▁grab	-11.2871
cen	-11.2872
▁पेठ	-11.2879
▁neo	-11.2882
bot	-11.2886
▁दादा	-11.2886
logy	-11.2887
morph	-11.289
▁ऑल	-11.2891
▁Bol	-11.2893
▁सोडण्या	-11.2893
azi	-11.2894
face	-11.2895
मार्गावरील	-11.2895
महत्त्वाच्या	-11.2896
▁कमाल	-11.2897
▁creature	-11.2899
ेवर	-11.29
▁proposal	-11.29
▁शहरी	-11.2902
▁होय	-11.2903
rang	-11.2904
ँक	-11.2905
▁पणजी	-11.2906
▁भूमिकेत	-11.2906
▁अं	-11.2909
▁महामंडळा	-11.2909
▁Ye	-11.2912
▁Cast	-11.2919
▁राजे	-11.2922
▁slaves	-11.2925
kha	-11.2925
▁ओम	-11.2926
ाबाद	-11.2928
▁भांड	-11.2928
hard	-11.293
▁विचारणा	-11.2932
▁शरीरात	-11.2933
▁institute	-11.2936
▁खेळाडूं	-11.294
▁सापडले	-11.294
▁लाड	-11.2942
▁गुन्हेगारी	-11.2942
▁Atlanta	-11.2942
▁Treaty	-11.2942
▁electoral	-11.2942
▁smiling	-11.2942
▁struck	-11.2942
▁बीसीसीआय	-11.2942
▁राठोड	-11.2942
▁वॉटर	-11.2942
▁सभासद	-11.2942
▁industries	-11.2942
▁हत्ये	-11.2942
▁कचऱ्या	-11.2942
▁temporary	-11.2942
▁flame	-11.2942
▁Organization	-11.2942
▁नोटाबंदी	-11.2943
▁Third	-11.2943
▁municipalities	-11.2943
▁गृहमंत्री	-11.2943
▁धडा	-11.2943
▁राहणाऱ्या	-11.2943
▁1907	-11.2943
▁Chairman	-11.2943
कारणीभूत	-11.2944
▁stress	-11.2944
▁करिअर	-11.2944
▁stuff	-11.2944
▁अर्थमंत्री	-11.2945
ux	-11.2948
▁Executive	-11.2949
▁justice	-11.2949
▁girls	-11.2949
▁तोंडावर	-11.2954
▁सामने	-11.2955
▁जिल्हय	-11.2956
▁Communist	-11.2956
▁खुले	-11.2958
रंजन	-11.296
▁काढत	-11.2961
▁स्पर्श	-11.2964
▁हांगा	-11.2965
▁screamed	-11.2965
nis	-11.2965
▁महिलांनी	-11.2965
▁घेताना	-11.2966
verse	-11.2967
▁मै	-11.2969
कन	-11.2973
▁pit	-11.2975
sel	-11.2979
▁belong	-11.2981
▁roots	-11.2983
▁actors	-11.2984
stre	-11.2985
▁practiced	-11.2985
▁आठवड्या	-11.2986
scale	-11.2986
▁अंड	-11.2988
pr	-11.2988
ement	-11.2988
▁Grant	-11.2991
▁centers	-11.2994
▁तज्ञ	-11.2994
lyn	-11.2997
▁resist	-11.2997
▁निर्यात	-11.2999
tail	-11.2999
▁jobs	-11.3002
▁seeds	-11.3003
hai	-11.3004
▁stores	-11.3007
▁होताना	-11.3008
▁हरकत	-11.3009
position	-11.301
wide	-11.3014
▁bond	-11.3016
▁नावाचा	-11.302
ताय	-11.302
otic	-11.3021
▁शुभ	-11.3023
▁benefits	-11.3024
▁मेहनत	-11.3025
▁घालत	-11.3029
Bo	-11.3032
▁succeed	-11.3032
▁Shu	-11.3034
▁विरोधकां	-11.3035
▁Constitution	-11.3035
PC	-11.3037
▁representatives	-11.3038
▁root	-11.3044
▁गाड्यां	-11.3045
▁शिवसेने	-11.3045
▁साध	-11.3049
बाज	-11.3051
ER	-11.3051
▁Rad	-11.3052
▁बाजारपेठ	-11.3053
▁Commissioner	-11.3053
▁Ward	-11.3056
▁थकबाकी	-11.3057
ropolitan	-11.3057
▁Tokyo	-11.3057
▁algorithm	-11.3057
▁elevation	-11.3057
▁परिवर्तन	-11.3057
▁मध्यरात्री	-11.3057
▁सिग्नल	-11.3057
▁दुसया	-11.3057
▁बर्याच	-11.3057
▁Donald	-11.3057
▁द्यायला	-11.3057
▁denied	-11.3057
▁विनायक	-11.3057
▁zero	-11.3057
▁ब्रँड	-11.3058
▁alleged	-11.3058
▁settlers	-11.3058
▁Vic	-11.3059
▁gradually	-11.306
▁विभागाकडून	-11.3061
▁ceased	-11.3061
▁2024	-11.3061
▁Jeff	-11.3062
▁assert	-11.3062
▁dismissed	-11.3064
▁घेतल्यानंतर	-11.3064
▁छळ	-11.3065
▁Apple	-11.3065
▁referr	-11.3066
▁Horse	-11.3067
▁Snow	-11.3067
OC	-11.3068
▁poems	-11.307
▁Honor	-11.307
▁permit	-11.307
भोवती	-11.3071
▁declined	-11.3071
shaped	-11.3072
▁cinema	-11.3075
▁भरण्या	-11.3075
▁हाऊस	-11.3076
▁मिळाल्याने	-11.3076
▁भारती	-11.3077
▁Pri	-11.3077
करता	-11.3079
त्मक	-11.3079
list	-11.308
▁प्रशासनाला	-11.308
▁worm	-11.308
▁Hat	-11.3081
▁सोडण्यात	-11.3081
▁मार्क	-11.3081
▁Bor	-11.3083
▁Fisher	-11.3083
▁होण्यास	-11.3087
▁लोकसभेत	-11.309
▁इन्	-11.309
▁यावरून	-11.3092
▁बर	-11.3093
▁fu	-11.3098
▁अहवालात	-11.3102
क्षेत्र	-11.3104
तार	-11.3105
▁god	-11.3105
▁सारख्या	-11.3105
▁Tam	-11.3106
▁पुन	-11.3106
▁पत	-11.3112
▁McC	-11.3113
▁आल्यास	-11.3115
▁लोकसभे	-11.3115
▁दुधा	-11.3116
wn	-11.3116
श्च	-11.3116
▁54	-11.3118
▁46	-11.3121
▁कागद	-11.3122
▁ideal	-11.3123
▁Ferr	-11.3123
▁daughters	-11.3123
▁Pop	-11.3124
ूच	-11.3125
▁भारताची	-11.3126
▁Pin	-11.3127
▁CE	-11.3129
Mon	-11.3132
adi	-11.3132
▁संघाच्या	-11.3133
▁पडण्या	-11.3133
▁आराम	-11.3137
▁वळव	-11.3138
▁Eli	-11.3139
lag	-11.314
▁कर्म	-11.3141
Or	-11.3145
▁arrest	-11.3148
ूम	-11.3153
त्रे	-11.3154
cation	-11.3156
▁मुख	-11.3157
गन	-11.3159
म्ह	-11.3163
ारे	-11.3164
els	-11.3165
▁Andy	-11.3165
▁Wolf	-11.3168
▁नात्या	-11.3171
▁tool	-11.3172
▁verse	-11.3172
▁अखिल	-11.3173
▁forming	-11.3173
▁उड्डाण	-11.3173
▁आत्महत्ये	-11.3173
▁Connecticut	-11.3173
▁Management	-11.3173
▁Peninsula	-11.3173
▁Portugal	-11.3173
▁boundaries	-11.3173
▁dinosaur	-11.3173
▁enhance	-11.3173
▁fundamental	-11.3173
▁prototype	-11.3173
▁shield	-11.3173
▁violin	-11.3173
▁थोडक्यात	-11.3173
▁दौरा	-11.3173
▁रिझर्व्ह	-11.3173
▁रवाना	-11.3173
tsu	-11.3174
▁आवर्ज	-11.3174
▁Chamber	-11.3174
▁फ्लॅट	-11.3174
▁Authority	-11.3174
▁सायबर	-11.3174
▁petition	-11.3174
▁अक्षरश	-11.3175
▁मार्गदर्शक	-11.3175
▁अपवाद	-11.3175
▁Persian	-11.3175
Sa	-11.3175
▁measurement	-11.3176
▁बारीक	-11.3176
oh	-11.3178
▁पिंपरीचिंचवड	-11.3178
▁भागवत	-11.318
▁tune	-11.3181
ियो	-11.3183
bol	-11.3183
▁व्याख्या	-11.3184
▁Warner	-11.3188
सेवा	-11.319
▁चालना	-11.319
▁filed	-11.3191
▁झोन	-11.3191
▁लष्करी	-11.3191
▁earning	-11.3192
▁su	-11.3192
fire	-11.3192
▁निवासस्थान	-11.3193
rri	-11.3194
▁हाताळ	-11.3195
▁thousands	-11.3195
SM	-11.3195
▁Along	-11.3195
▁designation	-11.3195
▁प्ले	-11.3196
ुरी	-11.3196
4)	-11.3197
▁भोग	-11.3199
▁pure	-11.3199
▁Much	-11.3201
▁कोठे	-11.3202
▁अपयशी	-11.3204
▁Az	-11.3209
sum	-11.3212
5.	-11.3213
aro	-11.3214
▁पाण्याचे	-11.3215
▁rough	-11.3216
▁Glen	-11.3217
▁ऑफर	-11.3218
▁flights	-11.322
पायाभूत	-11.3223
eur	-11.3226
▁Kat	-11.3226
▁seem	-11.3227
▁Sai	-11.3231
▁धो	-11.3235
▁app	-11.3241
ked	-11.3241
▁दुर्	-11.3241
आरोपींना	-11.3246
▁regiment	-11.3252
▁भाज	-11.3253
▁घेतो	-11.3253
▁मेट	-11.3254
▁३३	-11.3254
▁खाण	-11.3254
▁Dev	-11.3255
hel	-11.3256
Br	-11.3258
▁बसणार	-11.3259
ulf	-11.3262
▁राणी	-11.3262
▁dancer	-11.3264
▁गेम	-11.3266
▁सरकारवर	-11.3268
▁affairs	-11.327
▁stages	-11.327
▁नाच	-11.3271
▁पाहिजेत	-11.3272
▁चांगलेच	-11.3273
▁हल्ल्यात	-11.3273
▁झाल्याचा	-11.3275
▁काढण्या	-11.3283
▁scar	-11.3283
ska	-11.3283
पन	-11.3284
ानंद	-11.3284
ides	-11.3285
boy	-11.3286
▁प्रवाशांन	-11.3288
▁उभारणी	-11.3289
▁Ag	-11.329
▁विर	-11.329
▁Administration	-11.3291
▁Admiral	-11.3291
▁Infantry	-11.3291
▁Vancouver	-11.3291
▁approval	-11.3291
▁athletic	-11.3291
▁attorney	-11.3291
▁identical	-11.3291
▁volcano	-11.3291
▁आपत्ती	-11.3291
▁उद्दिष्ट	-11.3291
▁कोट्यवधी	-11.3291
▁समस्ये	-11.3291
▁edited	-11.3291
▁बहिणी	-11.3291
▁हस्तक्षेप	-11.3291
▁disappointed	-11.3291
▁emergency	-11.3291
▁बंधनकारक	-11.3291
▁exposure	-11.3291
▁radical	-11.3292
▁finance	-11.3292
▁peek	-11.3292
▁मालेगाव	-11.3292
▁टी२०	-11.3292
▁प्रभू	-11.3292
▁mummy	-11.3292
▁1908	-11.3293
▁1905	-11.3293
▁stones	-11.3293
▁आवारात	-11.3293
▁cozy	-11.3293
▁सोनिया	-11.3294
▁नावाखाली	-11.3294
ake	-11.3294
▁मंगल	-11.3295
▁preferred	-11.3296
▁पर्वत	-11.3297
▁trap	-11.3297
▁कळव	-11.33
ंदर	-11.33
▁friendship	-11.3301
▁Zone	-11.3301
6,	-11.3301
▁नसल्याचा	-11.3302
▁उतरले	-11.3302
▁Av	-11.3304
▁बरीच	-11.3305
▁वाचव	-11.3305
गीत	-11.3305
▁Austrian	-11.3306
▁चेक	-11.3308
▁dig	-11.331
▁पावसाची	-11.3312
▁implemented	-11.3312
▁रस्त्यांवर	-11.3313
▁0.0	-11.3313
▁Sandy	-11.3313
▁मतदारसंघातून	-11.3316
▁चुकीचे	-11.3316
▁दौऱ्या	-11.3317
▁दलाच्या	-11.3317
▁Dead	-11.3317
▁punk	-11.3318
▁जाताना	-11.3318
चित्र	-11.3321
▁येव	-11.3322
rip	-11.3323
▁steps	-11.3323
▁आजपर्यंत	-11.3328
▁option	-11.3329
▁tag	-11.3329
▁Such	-11.3336
tam	-11.3339
▁घेण्याचे	-11.3343
▁undergo	-11.3344
hoe	-11.3346
▁मंत्रिमंडळ	-11.3346
▁Lanka	-11.3347
▁processing	-11.3348
▁सोद	-11.3349
▁Bh	-11.3351
ग्ल	-11.3352
▁1996.	-11.3354
▁Ry	-11.3359
saw	-11.3359
▁contribute	-11.336
person	-11.3361
▁Kid	-11.3362
▁आव	-11.3363
▁Code	-11.3371
▁उदा	-11.3372
▁contribution	-11.3375
▁देशाची	-11.3375
quin	-11.3376
▁होताच	-11.3376
ूस	-11.3377
▁Mis	-11.3378
hold	-11.3379
▁newspapers	-11.338
▁attract	-11.3381
ii	-11.3382
▁जगण्या	-11.3382
▁soul	-11.3383
▁सारखे	-11.3385
▁surrender	-11.3385
▁complain	-11.3385
▁दाखवले	-11.3386
▁बँका	-11.339
जि	-11.339
▁सवलत	-11.3396
▁नसताना	-11.3397
▁encourage	-11.3399
▁recognize	-11.3399
▁wealth	-11.34
3)	-11.3402
▁2019.	-11.3402
tron	-11.3402
▁वेब	-11.3403
▁पोस्टर	-11.3403
रोग	-11.3404
▁session	-11.3404
▁falling	-11.3405
▁पै	-11.3405
▁आवडी	-11.3407
▁alcohol	-11.341
▁chocolate	-11.341
▁cluster	-11.341
▁legislature	-11.341
▁मिलिंद	-11.341
▁संपुष्टात	-11.341
▁Windows	-11.341
▁विलंब	-11.341
▁साखळी	-11.341
▁1904	-11.341
▁उपमुख्यमंत्री	-11.341
▁तशें	-11.341
▁Construction	-11.341
▁Standard	-11.3411
▁कुस्ती	-11.3411
▁नकारात्मक	-11.3411
▁infantry	-11.3411
▁Turner	-11.3411
▁evil	-11.3411
▁1901	-11.3412
▁हवं	-11.3412
▁lamp	-11.3413
▁installation	-11.3413
▁1912	-11.3413
▁interpretation	-11.3415
ुकतेच	-11.3415
ids	-11.3416
▁Armenian	-11.3416
▁दिल	-11.3416
▁hip	-11.3417
▁lowest	-11.3418
▁Vice	-11.3418
▁महानगरपालिके	-11.3418
▁पू	-11.3419
▁थक	-11.342
▁Ros	-11.342
▁helpful	-11.342
ेगाव	-11.3421
rup	-11.3422
▁Mummy	-11.3423
▁prepare	-11.3423
▁Princess	-11.3423
▁Back	-11.3425
▁reward	-11.3427
▁closure	-11.3429
sex	-11.3429
weight	-11.343
▁desk	-11.3433
▁barked	-11.3433
▁स्थानका	-11.3433
▁ओव्हर	-11.3435
▁ठाण्या	-11.3436
lio	-11.3438
▁संस्थेने	-11.3438
▁Dick	-11.3438
▁बँकां	-11.344
ठ्ठ	-11.3442
▁जाहिराती	-11.3442
▁मुलींना	-11.3444
berry	-11.3445
▁tap	-11.3445
▁reaches	-11.3445
SO	-11.3445
▁होण्याचा	-11.3447
card	-11.3448
▁annually	-11.3449
▁सेंट	-11.3449
rel	-11.345
ाइल	-11.3454
▁Rich	-11.3455
▁constitution	-11.3456
▁wagg	-11.3458
▁Mart	-11.3459
bank	-11.3462
▁मुलाखती	-11.3465
▁margin	-11.3467
▁भाजपचा	-11.3468
लिया	-11.3469
▁searched	-11.347
फळ	-11.3474
eta	-11.3476
ista	-11.3477
leg	-11.3478
▁पेय	-11.3483
owned	-11.3484
feld	-11.3485
▁भांडण	-11.3485
▁शोधून	-11.3486
ूय	-11.3486
▁सगळ्यात	-11.3486
तेचे	-11.3488
round	-11.3489
▁Gro	-11.349
▁Bow	-11.3493
▁opponent	-11.3494
▁बसत	-11.3496
▁Barb	-11.3501
If	-11.3503
▁नावाची	-11.3504
शीर	-11.3505
▁splash	-11.3506
▁Kir	-11.3506
चंद्र	-11.3506
वेळा	-11.3508
▁संकल्प	-11.3514
▁त्याचवेळ	-11.3516
▁पाठवण्या	-11.3517
झे	-11.3518
▁guide	-11.3519
वाणी	-11.3519
):	-11.3519
▁बाई	-11.3519
NC	-11.352
roll	-11.3522
▁ब्रेक	-11.3523
mark	-11.3523
FC	-11.3525
▁Morris	-11.3528
▁Die	-11.3528
सेन	-11.353
्प	-11.353
सृष्टी	-11.3531
▁Colonel	-11.3531
▁Deputy	-11.3531
▁Vienna	-11.3531
▁territories	-11.3531
▁कृत्रिम	-11.3531
▁सुधीर	-11.3531
▁animated	-11.3531
▁nurse	-11.3531
▁खूब	-11.3531
▁मागितली	-11.3531
▁false	-11.3531
▁clever	-11.3531
▁honest	-11.3531
▁neither	-11.3531
▁tiger	-11.3531
▁alternate	-11.3531
▁retreat	-11.3531
▁घोटाळा	-11.3531
▁chapel	-11.3531
▁palace	-11.3531
▁costume	-11.3531
▁जनरल	-11.3531
▁resolution	-11.3531
▁बायको	-11.3531
▁गल्ली	-11.3532
▁खुलासा	-11.3532
▁commitment	-11.3532
▁Kitty	-11.3532
▁प्रश्नावर	-11.3532
▁दक्षत	-11.3533
▁गाणं	-11.3533
▁नसतो	-11.3533
▁involvement	-11.3533
▁pipe	-11.3533
▁भगवान	-11.3534
▁जाल्यार	-11.3534
▁Wright	-11.3535
▁सादरीकरण	-11.3535
▁महानगर	-11.3535
▁म्हणाली	-11.3536
▁personality	-11.3536
lau	-11.3538
▁Carter	-11.3538
▁शेतकऱ्या	-11.3538
▁वास्तव्य	-11.3539
▁देशाचे	-11.3539
▁क्रम	-11.3539
hawk	-11.3539
▁Rail	-11.354
▁स्थगिती	-11.3542
▁मळ	-11.3542
▁Pont	-11.3542
फी	-11.3544
▁शिवसैनिक	-11.3544
FL	-11.3544
▁shake	-11.3545
▁Kil	-11.3547
ddy	-11.3549
▁deck	-11.355
▁उपचारासाठी	-11.355
▁Race	-11.3551
▁बेल	-11.3551
cla	-11.3552
बाजार	-11.3552
गट	-11.3555
polis	-11.3559
▁Rex	-11.356
▁इमारतीं	-11.356
रिट	-11.3561
aid	-11.3562
▁कन्या	-11.3565
▁म्हणता	-11.3566
rink	-11.3566
▁provinces	-11.3567
▁ट्रॅक	-11.3568
aker	-11.3574
▁घरच्या	-11.3574
▁अमेरिकेच्या	-11.3576
▁विभागाला	-11.3577
▁Greater	-11.3577
▁Officer	-11.3579
ल्ली	-11.3582
▁इं	-11.3582
▁replac	-11.3582
पोटी	-11.3582
▁भाषे	-11.3587
▁sheep	-11.3588
बंद	-11.3588
▁४८	-11.3596
▁मांस	-11.3596
▁असाल	-11.3598
▁writes	-11.3598
▁fi	-11.3599
▁वर्षांची	-11.36
▁myth	-11.3601
enberg	-11.3601
aff	-11.3603
82	-11.3606
▁forests	-11.3606
▁कराड	-11.3609
▁गर	-11.361
ाइड	-11.3613
▁Ur	-11.3613
-4	-11.3614
▁आयोगाच्या	-11.3615
▁cartoon	-11.3618
▁belief	-11.3618
enne	-11.362
▁vision	-11.3624
ality	-11.3627
▁tourist	-11.3628
▁regulations	-11.3629
▁Low	-11.3629
▁App	-11.363
kel	-11.3633
▁कौ	-11.3636
phone	-11.3637
क्टर	-11.3639
▁भाजपमध्ये	-11.364
▁temperatures	-11.3641
▁unsuccessful	-11.3642
▁pages	-11.3643
▁platforms	-11.3643
▁quick	-11.3643
▁Syria	-11.3644
▁indicat	-11.3647
II	-11.3649
१५	-11.3649
▁expert	-11.3652
मद	-11.3652
▁ठळक	-11.3653
▁Argentina	-11.3653
▁Commonwealth	-11.3653
▁accurate	-11.3653
▁battalion	-11.3653
▁dolphin	-11.3653
▁penalty	-11.3653
▁sunshine	-11.3653
▁उपनिरीक्षक	-11.3653
▁पन्नास	-11.3653
▁मेसेज	-11.3653
▁वर्चस्व	-11.3653
▁सव्वा	-11.3653
▁Alfred	-11.3653
▁oxygen	-11.3653
▁gross	-11.3653
▁Brigade	-11.3653
▁Further	-11.3653
▁वाजेपर्यंत	-11.3653
▁छगन	-11.3653
▁brush	-11.3653
▁exciting	-11.3653
▁मतभेद	-11.3653
▁neuro	-11.3653
▁terminus	-11.3653
▁२०१२	-11.3653
▁surname	-11.3654
▁employ	-11.3654
▁२०२०	-11.3654
▁खुप	-11.3654
▁कपिल	-11.3654
▁achievement	-11.3655
▁isolated	-11.3655
टिंग	-11.3655
▁1915	-11.3656
▁minority	-11.3656
▁छोटे	-11.3656
▁वास्तविक	-11.3657
mine	-11.3657
▁Stock	-11.3658
▁Walker	-11.3658
▁आराखडा	-11.3659
▁स्पष्टीकरण	-11.3659
▁manual	-11.366
▁Warren	-11.366
ime	-11.366
▁अभिषेक	-11.3661
▁मिसळ	-11.3661
▁ब्लॉक	-11.3662
▁efficient	-11.3663
hir	-11.3665
inch	-11.3666
▁symptoms	-11.3667
▁CDP	-11.3671
▁हॉस्पिटलमध्ये	-11.3671
▁breaking	-11.3673
▁Commons	-11.3673
▁Gill	-11.3674
▁ग्रामपंचायत	-11.3674
▁papers	-11.3678
▁विष	-11.3678
▁champions	-11.368
anti	-11.3682
▁Petr	-11.3683
▁layer	-11.3683
▁चेंडूत	-11.3685
trans	-11.3686
pine	-11.3687
▁ear	-11.3687
विण्यात	-11.3691
▁नेट	-11.3694
▁Bart	-11.3694
uda	-11.3698
▁chase	-11.3699
▁mini	-11.3699
▁peaked	-11.3701
▁आल	-11.3702
▁कडेन	-11.3702
▁Juan	-11.3703
▁traditionally	-11.3704
▁pretended	-11.3706
▁substitute	-11.3707
वती	-11.3709
▁व्हे	-11.3709
▁minute	-11.3712
▁झालाय	-11.3715
▁दान	-11.3715
▁नाहीये	-11.3724
▁settlements	-11.3731
▁मधे	-11.3731
7,	-11.3732
ोत्सव	-11.3732
▁Shin	-11.3733
▁आजारी	-11.3737
elo	-11.3738
ough	-11.374
▁Representatives	-11.3744
▁characteristic	-11.3746
▁Kon	-11.3747
▁(5	-11.3747
▁गुर	-11.3747
▁exhibit	-11.3747
hum	-11.3748
ido	-11.375
▁सर्वांचे	-11.3753
▁झाल्यामुळ	-11.3754
▁तत्	-11.3757
▁fruits	-11.3758
▁मंत्र्यां	-11.3759
ila	-11.376
▁मंत्र	-11.3761
▁अब	-11.3761
▁अल्	-11.3764
core	-11.3765
▁Pass	-11.3768
▁येतं	-11.3769
▁कॅम्प	-11.377
▁जमिनीवर	-11.3771
▁अहमद	-11.3775
▁Dakota	-11.3776
▁Mediterranean	-11.3776
▁Muhammad	-11.3776
▁Territory	-11.3776
▁disaster	-11.3776
▁discipline	-11.3776
▁holiday	-11.3776
▁mathematics	-11.3776
▁अध्यक्षतेखाली	-11.3776
▁दुर्घटना	-11.3776
▁पंढरपूर	-11.3776
▁विषाणू	-11.3776
▁सुरळीत	-11.3776
▁होईपर्यंत	-11.3776
▁अतिथी	-11.3776
▁पंडित	-11.3776
▁Control	-11.3776
▁grandfather	-11.3776
▁bicycle	-11.3776
▁sculpture	-11.3776
▁Alaska	-11.3776
▁प्रताप	-11.3776
▁फॅशन	-11.3776
▁स्थित	-11.3777
▁शार	-11.3777
▁Romania	-11.3777
▁परिपूर्ण	-11.3777
▁1902	-11.3777
▁ibn	-11.3778
▁favourite	-11.3778
खोर	-11.3778
▁weekend	-11.3778
▁NHL	-11.3778
▁Prix	-11.3779
▁जिओ	-11.3779
▁Theater	-11.3779
▁एड	-11.3779
▁उत्सुकता	-11.378
ij	-11.378
▁शिर्डी	-11.3781
▁Egyptian	-11.3781
▁घेवून	-11.3781
▁Place	-11.3781
▁Blu	-11.3782
▁Kel	-11.3782
▁पुरेशी	-11.3782
पाय	-11.3783
▁सामील	-11.3783
▁1850	-11.3785
▁continuing	-11.3786
▁ट्विटर	-11.3787
oz	-11.3788
▁लीग	-11.3789
▁deployed	-11.3789
▁दाखवली	-11.379
Help	-11.3792
▁शॉ	-11.3794
▁seconds	-11.3795
▁responded	-11.3796
बळ	-11.3798
अखेर	-11.38
▁नाते	-11.3802
▁गज	-11.3802
DR	-11.3803
▁ज्यांनी	-11.3803
▁भाविकां	-11.3807
▁10,000	-11.3808
bird	-11.381
RI	-11.3811
▁जोडले	-11.3814
▁रोप	-11.3814
IP	-11.3815
▁सोडा	-11.3815
▁वर्षांनी	-11.3815
ानु	-11.3816
▁लागल्याने	-11.3816
▁मांडला	-11.3816
▁lifted	-11.3818
▁indicated	-11.3821
▁गीत	-11.3822
▁pray	-11.3825
Ka	-11.3826
▁कार्यक्रमाचे	-11.3826
▁संघटनेच्या	-11.3829
▁रुग्णालया	-11.383
▁meetings	-11.3832
▁प्रधान	-11.3832
▁Uni	-11.3832
६०	-11.3833
▁Mountains	-11.3833
▁Ian	-11.3833
▁स्पर्धेच्या	-11.3836
▁प्राधिकरण	-11.3836
▁देवा	-11.384
▁explored	-11.3844
▁meets	-11.3848
▁input	-11.3849
▁populations	-11.385
▁crayons	-11.385
▁रन	-11.3851
१२	-11.3853
9.	-11.3853
fall	-11.3853
▁Bou	-11.3855
▁tribes	-11.3856
ducted	-11.386
▁बँकेत	-11.3864
▁उद्भव	-11.3865
▁Indians	-11.3866
▁पदे	-11.3866
▁networks	-11.3867
▁Lev	-11.3868
▁प्रतीक	-11.3869
▁jumping	-11.387
१८	-11.387
▁relation	-11.3875
▁encounter	-11.3876
▁व्य	-11.3876
▁बॉल	-11.388
▁lie	-11.3881
▁यावा	-11.3881
्सच्या	-11.3882
▁योगेश	-11.3891
▁गर्भ	-11.3892
▁जम्मू	-11.3893
वाढ	-11.3894
▁पर्यायी	-11.3894
▁गावी	-11.39
▁Kent	-11.3901
▁Arkansas	-11.3901
▁Glasgow	-11.3901
▁Harvard	-11.3901
▁Rugby	-11.3901
▁accommodate	-11.3901
▁advertising	-11.3901
▁demolished	-11.3901
▁emperor	-11.3901
▁memorial	-11.3901
▁pencil	-11.3901
▁phrase	-11.3901
▁supplies	-11.3901
▁तात्पुरत	-11.3901
▁महायुती	-11.3901
▁विश्लेषण	-11.3901
▁servant	-11.3901
▁आयसीसी	-11.3901
▁लाँच	-11.3901
▁सकयल	-11.3901
▁जालना	-11.3901
▁कर्करोग	-11.3901
▁तेथून	-11.3901
▁departure	-11.3901
▁Small	-11.3901
▁ऑटो	-11.3901
▁२०११	-11.3902
▁अर्थव्यवस्था	-11.3902
▁मिळावी	-11.3902
▁bedroom	-11.3902
▁classification	-11.3903
▁assembly	-11.3903
▁mask	-11.3903
▁षटकार	-11.3904
▁कोरिया	-11.3905
▁reduction	-11.3905
▁relocated	-11.3907
▁Grace	-11.3908
▁फॅ	-11.3908
▁Christianity	-11.3908
▁जादा	-11.391
▁designer	-11.3911
▁नफा	-11.3911
▁पॉवर	-11.3911
▁Pl	-11.3913
अल	-11.3914
▁Arena	-11.3914
jan	-11.3914
▁ठरू	-11.3916
▁ब्रह्म	-11.3916
▁parade	-11.3916
▁बघून	-11.3917
▁Guy	-11.3917
▁Rogers	-11.3918
▁उमट	-11.3918
grad	-11.3918
bba	-11.3919
▁महामार्गावर	-11.392
▁SS	-11.3921
▁editions	-11.3923
निर्मिती	-11.3925
ग्राम	-11.3925
▁आदार	-11.3925
▁लागतील	-11.3926
▁बेस	-11.3926
▁measures	-11.3927
▁Next	-11.3928
जार	-11.3929
▁सवय	-11.3939
maker	-11.3939
ao	-11.3941
▁आत्म	-11.3942
त्ते	-11.3942
▁कोर्टा	-11.3942
▁fund	-11.3945
ाजवळ	-11.3946
▁ranks	-11.3946
▁समजले	-11.3947
hra	-11.3949
▁Cooper	-11.395
▁संख्येन	-11.3951
दृष्ट्या	-11.3956
▁zoom	-11.3956
▁क्ष	-11.3957
▁tomb	-11.3959
▁counted	-11.3961
▁answered	-11.3961
▁विषयांवर	-11.3962
▁studios	-11.3963
▁SA	-11.3964
Pr	-11.3967
ंतर्गत	-11.3967
real	-11.3968
":	-11.3969
▁2018.	-11.3969
नीय	-11.397
▁संग्रह	-11.397
▁विदेश	-11.3972
▁pale	-11.3973
राष्ट्रवादी	-11.3974
AF	-11.3976
▁४४	-11.3977
AL	-11.3977
▁गोलंदाजी	-11.3979
▁Rights	-11.398
▁वेल	-11.3981
iel	-11.3983
▁maps	-11.3984
▁walks	-11.3984
▁ni	-11.3986
▁customers	-11.3989
ग्रह	-11.3993
AD	-11.3996
▁merchant	-11.3997
▁scholar	-11.3998
▁विस	-11.3998
▁हंगामात	-11.4
Ben	-11.4002
▁proceed	-11.4002
▁प्रमाणे	-11.4002
०००	-11.4002
▁borrow	-11.4002
▁scream	-11.4004
▁हिर	-11.4008
▁53	-11.4009
▁वैशिष्ट्य	-11.401
arm	-11.4012
▁प्रेक्षकां	-11.4013
ांबाबत	-11.4013
▁lecture	-11.4015
▁patterns	-11.4017
▁immediate	-11.4018
▁आगी	-11.4021
▁थोड्या	-11.4023
Gr	-11.4024
▁Cla	-11.4026
धर्म	-11.4026
▁बघता	-11.4026
▁stops	-11.4026
स्तर	-11.4027
▁danger	-11.4027
▁COVID	-11.4028
▁Initially	-11.4028
▁acquisition	-11.4028
▁emphasis	-11.4028
▁entertainment	-11.4028
▁participation	-11.4028
▁predecessor	-11.4028
▁recipient	-11.4028
▁universe	-11.4028
▁अजिबात	-11.4028
▁अपहरण	-11.4028
▁गौतम	-11.4028
▁संशोधक	-11.4028
▁अमिताभ	-11.4028
▁संभाव्य	-11.4028
▁संस्कार	-11.4028
▁स्क्रीन	-11.4028
▁diamond	-11.4028
▁flank	-11.4028
▁saving	-11.4028
▁घोटाळ्या	-11.4028
▁अविनाश	-11.4028
▁reception	-11.4028
▁worse	-11.4028
▁patron	-11.4028
▁barrel	-11.4028
▁hook	-11.4029
▁पारदर्शक	-11.4029
▁श्रीकांत	-11.4029
▁CEO	-11.4029
▁revival	-11.4029
▁वैद्य	-11.4029
▁cult	-11.403
▁selfish	-11.4031
▁धरले	-11.4032
▁मेह	-11.4032
▁advocate	-11.4032
▁पाल	-11.4034
▁scientists	-11.4035
▁जम्मूकाश्मीर	-11.4036
▁copy	-11.4036
▁खाद्य	-11.4042
▁आधारावर	-11.4043
▁publishing	-11.4044
▁बंधन	-11.4045
▁वेड	-11.4045
▁competitions	-11.4046
श्री	-11.4048
▁measured	-11.4049
▁extensively	-11.405
दर्शन	-11.405
▁Our	-11.4052
900	-11.4053
▁विद्यालय	-11.4053
▁96	-11.4053
▁shy	-11.4053
space	-11.4057
▁चांदी	-11.4058
▁mobile	-11.4059
▁Dom	-11.4059
▁तिच्यावर	-11.4059
▁फिर्यादी	-11.4065
▁घेतलं	-11.4065
▁Eu	-11.4066
▁दोष	-11.4067
▁egg	-11.4068
▁sessions	-11.4068
ईस	-11.4068
final	-11.4069
▁प्रत	-11.4072
pra	-11.4072
तोय	-11.4073
▁championships	-11.4074
ंबाबत	-11.4077
▁माह	-11.4079
hour	-11.408
▁ग्रामस्थ	-11.408
िब	-11.4083
▁coup	-11.4085
▁Milan	-11.4087
▁सांगते	-11.4093
तीन	-11.4094
▁600	-11.4094
▁Kur	-11.4105
4,	-11.4109
▁गण	-11.411
▁खोलीत	-11.4113
▁depict	-11.4114
▁गायन	-11.4115
▁missions	-11.4118
On	-11.412
▁कमालीच	-11.412
▁gene	-11.4122
▁remind	-11.4122
▁सोपव	-11.413
▁trick	-11.413
▁धरणात	-11.4134
▁बुधवार	-11.4136
▁आयटी	-11.4136
▁travell	-11.4137
ito	-11.4138
िना	-11.4138
▁खात	-11.4139
made	-11.4142
▁मतदारसंघा	-11.4145
▁रिपोर्ट	-11.4149
▁लेखा	-11.4149
▁thinking	-11.415
▁कन्	-11.4153
▁electrical	-11.4154
▁मधून	-11.4154
▁comfort	-11.4155
▁विवेक	-11.4156
▁Hampshire	-11.4156
▁earthquake	-11.4156
▁essay	-11.4156
▁impressive	-11.4156
▁tasty	-11.4156
▁तरतुदी	-11.4156
▁श्रद्धा	-11.4156
▁रिंगणात	-11.4156
▁मिरवणूक	-11.4156
▁necklace	-11.4156
▁पालखी	-11.4156
▁plastic	-11.4156
▁Allied	-11.4156
▁वेळापत्रक	-11.4156
▁Municipality	-11.4157
▁biological	-11.4157
▁permission	-11.4157
ावरुन	-11.4157
▁पांडे	-11.4158
▁oak	-11.4158
विणार	-11.4158
▁evolved	-11.4159
▁tenure	-11.416
▁स्वयंसेवक	-11.416
▁execution	-11.4161
▁बॅग	-11.4161
▁टेनिस	-11.4162
▁बसेस	-11.4162
▁राहतो	-11.4163
▁youngest	-11.4164
▁दुकानदार	-11.4165
ांवरील	-11.4165
▁Cuba	-11.4167
▁Leader	-11.4167
▁dominant	-11.4169
दोन	-11.417
uan	-11.417
▁आमी	-11.4171
▁Story	-11.4172
▁बोर्डा	-11.4173
▁भागांत	-11.4174
▁dust	-11.4175
▁४२	-11.4175
▁researchers	-11.4176
▁premiere	-11.4177
▁detailed	-11.4179
८४	-11.418
▁पोह	-11.4183
▁Baptist	-11.4184
word	-11.4185
नाही	-11.4185
ridge	-11.4186
▁वृत्ती	-11.4186
▁मॅक	-11.4189
agh	-11.4192
▁Cel	-11.4193
▁Communications	-11.4194
▁फुड	-11.4194
▁पाह	-11.4195
▁भाज्या	-11.4197
थळ	-11.4198
-5	-11.4199
▁Work	-11.4199
▁देवळा	-11.4201
tone	-11.4201
▁पक्षांनी	-11.4204
▁मज	-11.4204
▁(10	-11.4204
▁vegetables	-11.4204
▁Call	-11.4206
८८	-11.4207
▁reportedly	-11.4209
▁balls	-11.421
▁craft	-11.421
▁मार्गाने	-11.4211
▁programmes	-11.4211
्थ	-11.4211
▁बोग	-11.4213
ुब	-11.4213
▁lists	-11.4214
▁Zi	-11.4216
▁दराने	-11.4217
▁ज्यात	-11.4218
anta	-11.4221
▁Wol	-11.4222
dam	-11.4223
ंकी	-11.4223
▁Bird	-11.4225
lves	-11.4228
Who	-11.4228
▁assets	-11.423
▁बरोबरी	-11.4231
▁Tech	-11.4231
▁Row	-11.4232
▁rising	-11.4233
▁भाजपची	-11.4233
▁जागांवर	-11.4234
▁ठरल्या	-11.4236
▁लष्कर	-11.4236
▁peer	-11.4238
▁writings	-11.4239
OS	-11.424
▁उन्हाळ्यात	-11.4241
▁नाहीतर	-11.4242
▁हांचे	-11.4244
▁जाणारे	-11.4248
▁nut	-11.4249
▁अधि	-11.425
[...]
